3E087F82
BCE12E30
3D25C3E9
BD99296E
BBEB40FC
BC86C412
3DBBC35E
3D570676
BDBA4DBA
3DDD5065
BD9531DC
BCAE4F15
BDA9F3CA
3DB7A949
BD22FAF2
BD3ECB52
BDB8CF94
BE1268A0
BDA9E704
3C01F90F
BD1C08ED
BDC0FBEA
3C1EEA0F
BC8F4A72
BD5E50D5
BCBB4849
BD80BD4E
BD0F00D9
BC98DF8F
3D60EF46
3D871744
3D9123D3
3D16BF0A
BD04A330
3DC06096
3D7618E0
BCDA6A0F
BC2FDBB4
BD6B59AA
BD2A1612
3D910FD6
BDFB70D2
BD2A99CB
3CDEC2B1
BD401A17
3C8B7C4F
BD13B637
BCFA28E3
BD612F28
BCF9DC94
3DBC3031
3D3C5A74
BDFB30FF
BDA09AC5
3D1DE3D5
3D80B344
BD617FB9
3DCB705A
BD49565D
3DD7310F
3C8D635C
3C68F945
3D194994
3DB5A5D3
3D5D23D8
BD3B86B1
37889DA8
3D2757C3
BE0636A5
BD766EDF
3D7054DD
3D12E305
3DCAF879
BD913474
BD936ACC
BDB052C3
3D4B4212
BCA63323
BBAAA156
3D30E14F
3D320F95
BDB03BA2
BDAEE087
BD94063B
3D997F4D
3D836F3F
3D55A25B
BCEF8AE3
3D8E03A1
BC82078E
BCAD2E0C
3DE57BDE
3BF78966
3BE16BD8
3D88C8E4
3DDEF48C
BDA33493
3C904F0F
3D4705D0
3D00E7A3
