BC499C30
3AA8911E
3D94C4C1
3DBDB16E
3C84FB30
3CE564C6
BD1A51A0
3C1BD69D
B9E32200
BD86B276
BD90D7D4
3E70A0CE
3CBC9025
3D5D7D01
3C40AE81
BE0BA29D
BC2EAF03
3C472497
3D79C3CE
3DF37753
3D810520
BDAC6A59
BD0B4704
BDC6493C
BE1008EE
3D0463EB
BCD4A6F7
3C85C55A
BE721034
BDAFC85C
BE25DA40
BD79D753
BDC155AE
BC3D04AF
BD1412B9
3D52F513
BCBB10C0
3D62543F
BD31936E
3CA7B832
BD5464AD
3D71B55F
3D41590B
BAFCADE3
BE73F556
BCE1C56D
BE19361F
B9BBDC89
3D02E18A
3D1E0F5B
3D13EA07
BD639A96
3D12A5F3
3E38AEBE
BE1F8625
3CD777BF
BB96BB17
3D77250A
BDF344DF
3D4FFA5A
BD754014
BBD5F160
BDE845F3
3D611303
3DE725DB
BD8D3F6A
BC8BC16C
3DA59214
3D3B9EF4
BD131050
3CA76C11
3DA7689D
3D2B856D
BD8D6E04
BD46FA8E
BA90FA9A
BCEC5D53
BE3C1C89
3DB56303
BCB28E34
BDA4132D
3DBCF8AA
BE017A82
3D3CA934
3D382E9D
BCAC9416
3DCBB4FA
3CFFE604
3B5B8B37
BCB827ED
BDB4D152
BD857F12
3D92DE0D
BDC2EDF9
BA2890D5
3AD09044
BD81E842
BD73269F
BB75B402
BC41B059
