3E2EB297
3C6982B4
BD4F2622
BDA80C45
3E105839
BD90ECD4
BD7A6945
BD8209A7
BDF54343
BDEA2325
3DEA9D22
3DA925FD
3CDA676A
3D8D6927
BE0556C0
3D6D1B01
3D2BE39D
3DFDE5DC
BE15C6AE
3DD09C81
BE0BCE33
3E03EB9B
BD86393F
BDB6260B
3D707340
3DE84885
3CF9E0A5
BE2F09E1
BE0ED946
BC2F75AE
BDBCE586
3E3390E7
BDA4BA3F
BE14F319
BD7F6D70
3DC97B91
3D5C0F7C
3D9A3E0F
3D5F6FF3
3CFE0889
BDB501F5
BDCB62AA
3DCFCEA0
3D9D2634
BC3FBF66
3DD93A8E
BDF45554
3DA6E848
3DF150DD
BE065496
3C3C4FD1
BD5A419D
3D4D2C1A
3DDE099A
BD855B53
BD5E9502
BD293760
BD4DE143
BD98B234
BD49C6BC
BABA3F8F
3E1657C4
BD8256CF
3DF82194
BE270259
BDA02900
3D22ED12
3D97F7B3
BDD95A3D
3DAE9AA7
3D693555
3D4F7FFF
3D63CD83
3DF59ABC
BDC078A5
BDE221B1
3D292FF4
3D999B3C
BD9BF472
BDCB78D5
BD55E2E7
BE115424
3E09FA73
BDD0B2C5
3D5601A1
BDA60623
3D940569
3DFADB26
3DC255F3
BAFD0F27
BE09DD1B
3DCA547E
BE03C0A3
BDD2D7A8
BD667BF1
3E36D60D
3CDCBB2A
BC74C734
3DB43776
BDE6695E
BDD654CD
BDF7B126
3D9F7546
3E2888D7
3E8A7CE9
BE25D3A4
BDBA9024
BD822B92
BDC0742E
3DA6E8E4
BCFB395C
3DD3E26B
3DC7A4F8
3E0345E7
3DBF2AF8
3D3293F2
BDD597C6
3CB1C199
BE092EE9
BDD6B4AB
BE020430
3D8250BA
3DB24C79
BD84A34E
BDCC8D89
3DE3CE0B
3DD57FAB
BD8AFCFD
BE028017
3DA74A59
3DA926F8
3DE9FBDD
BD05389F
BDDDAB00
3DC16BC7
BDC99F8E
BE37C2BF
3D4437C6
3D6DA5F8
3DAFC5D7
BE0801FE
3CC24565
3D7A13F6
3D8BEE1B
BE110163
3D0811F7
3DB54FED
3DE2EE1F
BDCDC205
BDEDF61C
3D95ED3F
3D9E8D82
BA4CFA80
BD985876
BDA54E64
3DE071F4
BDB78338
BDA534F2
3CBD7F9A
3DFCEA09
3DFF8ECB
3D2F870C
3D91CCF2
BDE20779
BDCAC094
BD8FC847
BD640CD9
3E0FC515
3E018FE1
3DE0FBEB
3DC13CD4
BDD2B685
BDFBC223
BDDB4363
3DD3171C
BDBAAB55
BDAC12BC
BE132832
BD8D5A82
BD9A7F22
3DBA587E
3D13D038
3DF0471C
3DCDB997
BE247CC3
3E0FEDAB
3B4D15DC
3D87FCAC
3DC234D4
3D8BD5FE
3D816D43
BE3B2867
BE0EFAC7
3CE99483
3DAC867F
BE0BCC31
BDB4851B
3DC37008
3D8EB46A
3D8EF6E8
BE703C7F
3E050DC4
BD12BD2B
3D098CAE
3D00DE1C
3D3D4516
3CDC9F53
3C1BFCDD
3DDD185B
3DFC3688
3DA199FC
BA6F2FAC
BE0AEF8C
3DBED445
BDF736F1
BDD7416A
3D8F28E4
3D7B8AC3
3E0A3791
3E005433
BD5C7696
BDA50F33
BDB001B0
BDB8BEB6
BDB74CB8
BD4542A1
3DE629CF
BD925785
3DE9FD4E
3E035865
3DA1FE3A
BE49D780
BC9266B8
BC87363A
BDBE3947
BCF25249
3E13005E
BD67BCFB
3E2F13D2
BDBDEE33
BDFD2B93
3D20671A
BE00CDD2
BDABBF59
3DCCC2C8
3E1FA29D
3DE3244B
BDF61AE4
3DD4DFC7
BDFDED83
3E01454A
BDE70C1D
3DB16F41
3D82A3BE
BDF40323
BCCE1F17
3C49A942
BCA1E5E0
3DA4D16A
BDB0B30D
3DC8A8BD
3DC06E69
BDA92E70
BDB9580B
3DC17386
3DDD5364
3BA9EC4F
BDB15AF0
BDE2D36D
BDC85E81
3DFAE4BD
BD93EA90
BD848103
3CA92483
BD31D725
3DD1AD15
3DD5994F
3D9E3801
BD8498D1
BDEF1CBA
BD28FC1D
BD007A44
BE0D0DB2
3DA36C9A
3D94A63A
BDAAE723
3DB6C04F
3D804CFF
BE0EB661
BDFF2545
3D7F7A90
3D816EFD
3DA58D3C
3D5789D3
3CD0D7A2
3C0FA57C
3D0FC552
BD7A51A8
3E0AE351
3D8DF773
BE0A1625
3DA2B8DD
BE1FFC21
BBACB294
3BCFB123
3D766164
3CD5AFEE
BD1A9EA1
BD950753
BC58D7BE
3DE9D6F7
BD7B2C55
BE6B0CD6
3E0DC0C7
BBCCEAD4
3DBC9D4D
BD9607A2
BC8FFF64
3D80B533
3CD86C9E
BE730F2E
3E1FCF58
BCCB758D
3DB6D814
3DC736CB
3BA95915
3D89EAF0
BE0AE556
3D5837CB
BD45A435
3DCB5158
BDD0C171
BDE53912
BDE5A990
3DA5CB8E
3E17E9F6
BD8B8DEE
3D5454F8
3D6AEBF2
3D1EDAD4
BD0C5B81
3CFD87D2
BDFAF0D6
3D88CED6
BC8CB90D
BDA42E26
BD8E2910
BDA758BE
3DE9E04A
BDC594DA
3E018700
3E1849D0
BE190381
3D80F6C8
3DC7315A
BDC14136
BDC05543
3E23DEEF
3DE4FAA3
BDFEE86C
3D9B03AA
3E1E4D3B
BAF487A9
BDEEEF19
BDF4D113
3DCD6064
BDA74951
BD64567E
BDBF0EE7
BD49C41A
3E1B0C74
BD924909
3DF43E31
BD7FFDFF
3DAD6CC3
BDD738EA
BDC79550
BDE015B1
3DC773AA
3D912BDE
3DEED4E4
BDE06B12
3D3EF87B
3D3E781E
BDD7AE42
BD73479C
3DFCAFE3
3DAC7307
BD78CDA5
3D7757A2
BE05F461
3DB2B1AD
BE158946
BC49A5E6
3DA0EA86
3D932E1B
3DBF65C7
BE1C18D1
3D08BD99
3B9FBEA0
3E331E88
BD8FC546
BD23A8D5
BD3C79BE
3E02E7BD
BDB7DA8C
BD3940AC
BD256F84
3E0743F0
3C3F0F52
BD97AB9E
BDA2EDAE
BD033A24
3E174E78
BD54B7AF
BD72F43F
BD0D9B3D
BD40207D
3E072C2A
BD958E78
BDD42064
BE01F70C
3DBDD01E
3E40EE49
3DFF95C6
BE0D5868
3E179616
3DCAB24F
BDDFE874
BE1E4EBD
BDF58736
3DF3AB51
BD0FFF2D
BC88CB0C
3DB17FD7
BDC03383
3DE90A66
3DFD98B6
3C87E9FE
BE262BF2
BC1AEFFE
3DA1E83F
BE146B82
3DE99007
3DD701AE
BE04DA26
3DD381FF
BE0C2DE4
3D9D9CD2
3D6865FF
3DC66048
3D718FCD
BE0C9449
3DB90C7E
BE0EFBB0
BDF839AD
BDB22A5B
BD3D72A8
BE0CD7A3
3DB99839
3DD64571
3DBB6B90
BDCAC1AF
3DD3D7D1
3D8A395B
3DB5675A
3DFBA563
BDF1F564
BE084C75
3DFA59A4
BDB0359F
BDC02094
BC05229C
BCB0EF44
BD972EA9
3E10BFDE
3E0627B6
BDD1E05E
BD50D9F4
BCFE1A01
3DC91C57
BC7C9872
3DD35118
BD871AA1
3DF9B486
BDB29710
BCE46ECA
BDCBC14B
BE47277A
3DF4D5B0
BDFA1874
3D6FA20E
3D913E09
3DB1A4CC
3D245168
BD5F04CF
BDBD8244
BD954E82
3E1E020B
3DF41C06
3DEF3E29
3DC7E34A
BDDE6151
BE3CE567
BDBBD23B
BDDCF9E9
BD9D7A69
3E039A5F
3DCAB872
3DF58391
BDC53715
3DB9C034
3C8DA740
3E2D7509
BDD60CC4
3DFDB205
BDA6BB85
BDAB530D
BD718842
BD6D37BC
BBCC9BFF
BE17B44C
3DCD2A47
BDAE0E06
3DD12A82
BC757C7C
3D8B0B55
3D85FB84
3E3311CE
BD960841
3E0CC23A
BD78B915
BDF2B7F3
BDD0D99D
3DD77282
BDD4563E
3D778BC1
3DC99B80
BE0883ED
3D9BB918
BE0A6849
3DCC61BA
BD8957E5
BD655257
BE12DEC0
BCC0C6C8
3D2B4959
3DABC109
BDFD75FB
3D2B1720
3D67C1A5
3D870BE9
3D3D35EB
BC306CA7
3D8DDD24
BD6241C2
BD2E4879
BD6A66B7
3DD8B8B8
BD88D868
3E13FDD5
3DE32ABB
BDA0DA45
BD6EDB46
BD4F9206
BD621D59
BC94B32A
BCA54FAA
3D8F6ED2
3E1D9AA0
BD3FCA2F
3D08068A
BD815C8F
BDCC66A1
BD974923
BC8F688B
3DC278BA
3D863268
BD9EFC03
3DE79A4F
3DF5E27A
BDE5F968
BD9FA0B3
BDD50BD6
BDC267EC
3D106A88
3DAA0873
BE04015E
BDC426C2
3D957521
3D942ACF
3D08BFF1
3DC2CFD6
3DABC0AF
3DA7CF8E
BDFD6751
BCC9C3B3
BDE4C225
3DB92008
BDADB4F7
3DC6DCF9
BCFE54AF
3DCBA144
BD5998F7
BDC17381
BDBB31D1
3DE1B47C
BD7582BA
3DFB58C1
3E2D4466
BDB20E24
BDB575ED
BDD77D7A
3D9B7B8F
BD40EA0B
BD0F296F
BD24093D
BD805011
3E2ED62C
BD161E99
3E1F74C3
BD7F5A25
3DC6B8E1
BE30CEA8
BDAFE717
3D3B89A6
BDD25F83
3D97AB1A
3D30EEF7
BDC10660
3D98AEF1
3D9EDD99
BD9A3D2E
BDD668E7
BDA01A37
3C4E5509
3DBC815A
3E0AEB7C
3D3E7AB5
3D41CFA5
BDC50E67
BDC88D0C
BDEB35E1
BDB142D7
3DBC9230
3E1C9861
3DE74CE0
3D8ECD68
BDEA8B84
BD969338
3DB5AED0
3DD80308
BDBF0205
BE05A0AD
3D9DED94
3DFAD2F8
3DD4CA74
3D9F5A5F
3E27B050
BDD4376C
BDD28261
3DAC20B1
BDC7A173
BDD7247F
BE47D303
3DEA740B
BE0EE742
3D91C863
BDE6311F
3DCBB5C5
3DA961BE
3D949048
3DEFEA3E
3D6911D7
BD914D57
BD13724A
3E0FFDF8
BDC8EBBB
BD7BDE28
BD746579
3E3C89C3
BE601C57
3E25A4E4
BD90AFF0
3DA35643
BDBEC30D
BDC7939A
3B045BF9
BD950E98
BD8A1492
3D2596B3
3DC580CD
3DF9F96A
BE1BBEAA
BDDD6D50
3DF38884
3DB92348
3D9E22C6
3D26517D
3D995452
BDF2324D
3D9359E3
BE025FBE
BE098FBE
3DD3FE82
3E3E1AF6
BD95C010
BDCA11EF
BD0267A6
BCB655C4
BD6B6E57
BD0DFC26
3D2EF093
3DDFB38E
BE06B601
BC3AE318
BD84CB48
BD53FE44
3E1F43DA
BD81C42E
BD3BCAA6
BE2C3000
3D61A820
BDD5F7B5
3DB01BC0
3DA81355
3D92B791
3D5CD25D
3D9E24BE
BD8C5C72
BCCD1692
3BCA9D46
3DCFC366
3DDB210A
BD9B59BB
BDCA2B71
3DA45EFF
3DF8973E
BDFADACD
3DF6C9B0
BD8DE2B5
BDF58B7B
3D9D352B
BD808B96
BE32F1C4
3DB0F7D4
3DA28684
3DB141AB
3DD94BAE
BD81B5CB
3D89E2C4
BE3D369C
3D866D91
3E2285E8
BD942CDB
BDBCDC29
BD860975
3D958622
BD88A68D
BD30DCA3
3E100F69
BD0D0C5F
BCA48631
BD36BD53
3E0FA604
BDC2A8F9
BD8EFE4C
BD2662FB
BDA23A83
BDBA4BC6
3DC2ED71
BDF37DC3
BDE97CAE
3E1F711B
3DBCAAFE
3DC3201C
3DE54044
3DB40375
3C498AF3
BDE91A3E
3D994F07
BDF0BB4F
3D81EFCE
BDC2421F
3E05E26A
3D8694B4
BDCA8EE9
BDAA697F
3D902AE5
BDB802EF
3DD9271B
BD808C33
BD774E4D
3D2ED974
BE372CD0
BE182CEA
3D8381D0
3DC51402
3D9D64A6
3DE31564
