3D6F0D8C
3D15871F
BB374646
3C82BAA0
3B70218B
3CE49D6E
3C581A1F
BBE24C8C
BC855F21
BB0B8148
BA6A7798
BBDA5B6D
BC991684
BDA6E358
3CB1E54A
BCA80960
BC681BE2
BD08AA9A
BD0B3FE4
BCE65A5D
BB6AFB24
BCE30E81
BC9DB706
3CD10257
3B68BCDE
3BAE095D
3C05CA80
3C62A276
B988BBA9
BC81022D
3C876BB4
3C9C7D80
3C94EE92
BD18A6F8
3C654E70
BC97B196
3C8B6C3D
3C08BFFD
BC5EFF27
BD26F9C4
3CEB1369
BD03D219
3CD5B6A0
BC8E2566
BC60D61C
BB634F4E
3BEFC208
3C876863
3CC3BDCB
3C89F340
3CC8CF06
3BC7D9CD
BC9D8419
BD3134FD
3B507B5A
BCA802BD
3C2893F4
3D0F74A4
3A64F42C
3BFB7E02
3CA25990
3CFE855F
3CE33457
3C2881B1
3A80A616
BBB8E3A7
BD982342
BB27F3A1
BCD58247
BC4A5458
BD57461B
3C1B4E6F
3CAF3494
BC847E8A
BBD522DD
BCFCF17D
BCB6B194
BABC4E94
3BE34354
BBCFCD58
BD1C987F
BCC50A3E
3BC11969
BCE0C8FB
3CDE417A
3D225C44
3CDC2428
3C50D2C9
BC17F2AF
BD115ABF
BBDBCF76
3C8C19F7
BCD4D2AC
3CB354D6
BB671A8F
3CE279F9
BCBC471E
3BBA8C53
BC3CCA56
BC1C192A
