3C1F7BF7
BB384DA0
BC05454C
BCF30952
3D38F647
3CD1AC19
3D4E5E00
3CF2A751
3C9335CF
3D1B0272
BCA185D1
BC992C48
BCE49F3E
3D8E7660
BD0A197C
BA77E405
BCFE2C1C
BCD2F605
BD349E39
BC5CB030
BD12C9CB
BD444AE9
3CE2C600
3C824324
BD5C6FB4
BCF6AC27
BD114585
BCA68E31
3D0C5054
3D4C2BC0
3D17AC99
3D3C31B6
3CEF577E
BD84C28A
3CDA16FF
3C1F1875
3CE04F60
BCCFB94D
BC05D65F
BD585646
BD1B584F
BD03251E
BC7F7B13
3CA7B075
3BB79B86
BC433842
B9A6B5A7
BC4DC6B9
BC44EDB2
BC4DB0DA
3C32DAE2
3C93C36F
BD0EC38C
BCA09E03
3D0BBBB6
3B1BCC77
BD2A0ABA
3CFE7348
BCBF42AD
3CB90257
BA5027D2
BD26D68C
3D028367
3D15E82C
3C3C7DB0
BC52B37D
3C616945
3BD35FB9
BC8F3B81
BC4C43ED
3B103E18
BC810CC1
BAB0C7BF
BC80B7EC
BD084665
BB5C1A07
3CF7A300
3B120B03
BD00E33C
3D2DFE68
3D3FB26E
BCA6DC54
BD01B39C
BD0C436B
3BA48769
3D6D3153
B9D8C75E
BD04547F
3C8DA057
BCAEA0FB
3BB98D4F
3D41D587
BD13D650
BA7D49C3
3C124ACC
BC51E87F
3C68B713
BCC32F0C
39A62341
38B6B912
