BD8C636E
3D3442DD
BD8C8A27
BD242DD6
3D534F82
3CD78799
BD43A02E
BC8416D9
3D6BCFA9
BD05C662
3CE2FD4D
BC57D0BA
BC0ED610
BE22C537
BCC3A260
BCD00FD4
3D04D973
3D9EEA04
3D10CEDB
BB2FE272
BD3E09C9
BD4200A8
3C898DD2
3D6792D4
3D76BF0C
3DFA85CA
BD215E55
BB10E0C0
3D800E20
3D0009C2
3D65C492
BD27B6FE
3C5D435E
BD848A9A
3C5F997E
3D507659
3DC9397B
BCEA84B3
BB9680FF
3CB387F8
3DD6620F
BD80B48B
3CBDEA02
3CCA239D
3C6AF3CD
BD83818D
3D00A043
3DAF1667
3D5CDF5E
3DA95E9B
BBD84FD1
BD727A4F
BBBA20F0
3B5908CF
3CD85FF4
3CB715BF
BD29A250
3D5F6839
BDA3F3D0
BBD49C99
BC7B09C8
3D6EB728
3D5D6CD6
3D052D4C
BCF2536E
3D4C248E
BDE55211
BD869693
3D8B5582
BCC09975
BE001357
BD2C9AF1
BB827DC8
3BE9568C
BB6198C8
BD082BD1
BDE6F22D
3D23FA1A
3D7EDA33
3C81F99C
BA8F2A2C
3D07B869
BD2B54E6
BC915B0C
BD85BB4B
BA8D1C09
3D87B880
BCED9FBB
BDA3F2AE
BD5D9F08
3CEFDE9F
BCD832B5
BD57C57C
3D9ECDE6
BD854A02
BCCD688D
BD04907E
BBCE2A26
BD52B59C
BC707607
