BD457EDC
3D1997D6
BCAA201A
3D97EBFC
3D832F4B
3DA25B7A
BB156F57
3D9A2288
3DB83339
BD637641
3CE81121
3D9843E0
3D067DE5
3D05E202
BD1824D9
BCA31DAD
BD84D4A5
3DD5D22E
BB5277C8
3D18ED2D
3CA5CA4D
BD8F2F12
3D3B89A6
BD562305
3DCD7605
3D355F48
BC9EDC15
BDA3A9DA
BCB9985A
BD7254BE
3D64C789
BC8A7D9B
BCA5584E
BDA9D889
BD0CB3BE
3D1611DA
3D3C1F5A
BCA7EC6D
BC8BB0F7
BC765E67
BD8B9E95
BB3EE34F
3D1E90E8
3D62B4DC
3CE4B9BB
BC651F7E
BD1DE3CD
3CA0D659
3D245752
3C5B601F
BDE73C56
3C2B6886
3DBC82E1
BDAC3DF8
BD039BDF
BD982B90
BD52F928
3D41ED6D
BCBECA82
BCF7C9C4
BDF19974
3BB01BDB
BD94D0B6
3D582DB8
BCECBC06
3C4B559E
BE27C0BB
3C23FD99
3DDDF21B
BD09432D
BDF21ECB
BCA4C2C0
BDC4FA57
3D48F28B
BD4B1FCC
BD7EA7C7
BD3D25E7
BDCCCE29
3DBB265C
3D5F6308
3CEAA190
3CB481D3
BD94D23E
3DE9DFBA
BD8C1A41
BD32AEF8
3C94050C
BD134ADD
BD85F741
BD20219B
3CDADF16
BD5ACB04
BDA12265
BC9115E7
BD37EB5F
BD519524
3DC8EB6D
BD45EAE6
BD778942
3DF3DD68
