3D9E6785
BD26D789
3D088F72
BCEB3C61
BD1C211D
BC768AC1
3DADEFC5
BC76BB4C
BD6AF8AE
3D6F4D3B
BD2701CA
3C5B71C0
BC866DE2
3DD7BCD2
3C81F7C7
BDA233A7
3C01532B
BDECAD74
BD236D13
3C1B4090
BC69A0F5
3D027B91
BC977623
BC28EC4C
BDEED263
BE10186E
3C2114A3
3D6C1F4D
BD03A333
BCF64E7E
BC55D0C6
3C6DB65A
3D350732
3C87DE64
3CF08F6A
BD0F0947
BD738491
3DBD17F3
3BC7BE27
BD916CBE
BD712B3A
BCA9B598
BCCAD9C2
BCD22D44
BD399676
3D082623
BBD01968
BD206543
BC7AFD54
BCB81483
3D803ADC
3CC7807B
BC8611A3
3D95BDA2
3BF02465
3D3A2ACF
3CEE4CCA
BD57433D
3CA39A7B
3D682CDF
3DF5C28A
BDBB68DC
3C19E25E
BB6FC9C6
3D567077
BD1CCB4F
3DAC12D5
3D158BB3
BDC946D2
3CBECA52
3E0B8D6F
3D3683AB
3DAF9177
BD688CDB
3CFE81D3
3DA64CD6
3D58E168
BB787F45
BDC35F86
3B942866
3B01EF15
BCADFB75
3CB42EDC
BDBB0A00
3DF32EE9
3D149F7F
BC1C935B
3CFFD4F5
3D8B943E
3D24A74B
BCF97ACE
3D90D976
3D941337
3C27DDA4
3D5020E4
3DEDF10B
BDCDA86B
3CAEEF1E
3D1DF535
BE0C5389
