BDBDE4E1
BBF109F9
3B64C2A0
BD20141E
3D11B83E
3C0C41AA
3C252CC1
BC4E7CAC
3DAE2EAF
3CDF0B6C
BD113BB1
BC0ECF4F
3C06414F
3CB37214
3C580CAD
3D348A53
3D2A46D1
3D2E39DA
3CD722F4
3CEB301D
BCB9A7AA
BD0466E1
BBE87C58
39930A9D
BDACD097
3D9E63A6
3B595F0E
3D3AD242
3D548E76
BBB70B4A
BCF4B56D
BBBA607E
BD03EF55
BD52FE52
BC4A18FC
BB84FA31
3CF6BA8B
3DD114DF
3C5AB9A2
BD84F211
BDFCCCD7
3C703A9D
BC7D7922
3BB602C0
BD0D23A8
BCDF68E0
BBD3453A
3CBC5DFD
3BE03CA2
3D58C255
BDB0CF91
BC8A9961
3CC635A5
3D8EAE85
3BBD488A
BD0DABD9
BC810391
BDC766DB
BBC8D877
BD2090FA
BB3BC6C7
BCCAB217
3C2B7F47
3C8C7D80
3CB11F13
BC329BBF
3DFADE66
BAF70C84
3D8A167D
3CC61E74
BD0C7DD5
BCD09200
BB193612
3A578762
BCE47874
3D77382E
BCB9E614
3C2611C3
BD14F8CD
3CCCDE15
BB00810D
3D9D4EB9
3C96EC1D
BD218252
BD1266F9
BBF2C8DD
BC895669
3D032C1C
3CC8D087
BC265198
3B805915
BD314F42
BD0D84B7
3CF06088
BA259F3D
BDC2A22D
3D3D8836
BCABEFC7
BD1611C1
BE048956
