3D445F28
3BF6E489
3D539C6E
BCA59C18
3D454024
3D02BAB4
3D0019B8
3D19A148
3D9451F3
3B620843
BC8C3F3E
BC5FA3EF
BCBCF6A2
3D43B207
BCA4DF9A
BD52D2B1
BBFF5172
3D099C43
BD14FECA
3C7BEC6F
BCD66257
BD919DEC
3C235A04
BD0D0CB1
BC5FF1A1
BCA2BBF3
3BCB7AAB
BC8D9438
3C17D6B2
3B814894
3CB88828
3C6E4137
3C502759
BDC3E8CE
BA2B0B83
3D8E11F0
3CE2E404
BD65F915
BCEF35DC
BD7B0B6A
BD53A6B8
3BE853BB
3BE93DE1
BD6C161C
BCE5E9FB
39A34D4E
BC8929F6
BB70F2AD
3C9F843D
BCE1E935
3C1F8045
3CFD2E52
BCD127F8
3D6BC2A9
3C54DE55
BC7CDF86
3C28457B
3C62491B
3C72BA59
3D088AC4
BD225FB5
BC151C95
3CB76059
3CC61DC7
3CF27300
BBD8BDDD
BD837812
3CB95BF5
3D1496BD
BD28790E
BCF6A3E9
3ABD51D5
BCAECA5B
BD2A1FD4
3D2E9056
BD7B24F1
BD081DE9
BCCF753A
3CB1707C
BCAB5064
BBBDF3AC
BD117F73
BD523591
3CE9EC87
BD2CBB67
3C5A52E1
BC8007DF
3BD2846D
BCF2D773
BD01356F
3BAC3D3B
3D6374D7
3BAB6E41
BC48B270
BB730D52
BB51A3B7
3D1219E2
BD7E0B9E
BC740B74
BD07E9A6
