3C5F21FA
3BA73552
3C3B5695
3C1E4FD6
BAF5CAB9
3C60142A
BB660EA7
3CA1691C
B935EBF4
BB5F8AC1
3B916AB5
BA281EEC
BAC8CD3C
3C3C050B
BB9D8904
3BAE37CB
BBD4095E
BC6567E9
BBA8A9DB
BB929C52
3C14F57F
BC41D017
3B0F14DE
BC19D068
B994B193
3CC412D1
3B460613
BC3EC8BC
BB34F6EE
3B811EFA
BA2E3C37
BBF402C1
3B80576B
BB54C276
BA864D53
BA20C6C9
BB02FCAF
3B8B97F6
BB3F5039
3C6074BF
BC0A57D3
BBB3E8AD
B9569505
3BFC194A
BAF88779
3C9AC164
BBB1FEB6
BC6073A6
3B0FD7F2
3A51D9CC
3BA9FF28
3BD1E293
3B623CE5
3B95269B
3B25FF5C
BC92B6FE
BBBA9283
3B58CCAF
3BD84802
BBAA89F5
BA08CF58
3C7495DB
BB49A230
3B9AB187
BC2CBDD8
3B5BBB78
BD0869DD
3BFC89A1
BBBFBE9C
BB98B2B1
B9B9AFD3
BB99135A
BB911AE3
3C094E32
BC6CB3C0
BC26126F
3C2EDDCC
BBE2D864
3B96000B
BA1873DB
3C51394F
BBADFD7B
372A503C
3CB9EA49
3C83DE25
BCC1FD5F
BB9C00FF
BBB90BBF
BBD3ED0D
BB836C43
3BE0201F
3A4AF409
BC87936F
BC1BD554
3B5D6EF5
3BEA242E
3C2A772E
BBF719BB
BBDF7F81
3B8F7C5C
