BCB965C2
3CA0F16B
B881DFD0
3DDFC075
3BE6BC7A
BD304435
BCA4567D
BD6F7FBF
BAB7731B
3D48CFC0
BCCF69C4
BDAB8ED9
3CC94ECA
BDE29D18
3DF3839D
BD31CB09
BD6644EA
BBE5F8C0
BCE9AF75
BD82EF81
3CBDB214
3D4B59F1
BDC57B75
3D733A1A
BC29C229
3DE4962B
3DB6707D
BC6A0D64
BC1E72C7
BDD2A261
BCC0A06C
3D9657C7
3C914D56
BD0607C8
BD4BC0AA
BCA3F74F
3DAA45EF
3D88BF9D
BCC5196F
3C5FE9E1
BB36EE1D
3CF57871
3D171BF6
BD7F0E90
BD4297E5
3D256860
BC4CDB02
3CE55BF5
3C7727E3
3CC4E5CF
BD56F6E6
BCB684A3
BD58CD55
3D6A8A89
3C40CA36
3CE4BBCC
3DBBF447
3B8D081E
3C7D7327
3C03F172
3CCF5E4C
3D5728BF
BCC3FAEB
BD919C29
BB94F3A3
BD23BCEC
BD8FC6E5
3CBDDCDD
3C98F761
BC37FCB2
BDFD85C9
3D86677A
BC6EC367
3C6464EE
3DA60CB0
BD682E8B
BC6B90A1
BD57175A
3AFA3D11
BD8F601B
BDCC1FA3
BD5B239F
3D14C69C
BD0B2549
BD80523A
BC4F06C2
BC98C0EC
3DD39757
BAEB4B1A
BD56F5E1
BD2434A6
BBA992E7
39AE6020
3D4F6A84
3D4B6429
3CAD7C6D
BD888CE1
3D84C465
3CFCE6A4
3D257F41
