3B0F3832
3C84B1DD
BCF2E0D0
3BF24377
3BA5F80E
3D01F241
3B939CD9
3C52732C
3CC138E0
3CCF163D
3C24BD20
3C414234
3C0ADABA
3D1BEEF3
BC2CCAE4
BA9681DD
BB146736
3C9A144D
3C0DAE94
3BFC1593
3C3627B2
39913DE5
3BE6860E
BACDF5B4
BBF02D9E
BCCB1B18
BC85003E
3B57AE1D
BB9CECAE
BAF2639A
BC8A5333
BA2C9054
BA9206B1
BCD82882
BBD5206D
3A41DD8C
3C804D2D
BB8AC651
3BD193D3
BC9190BD
BCE3BA86
3B53B40C
3B1582D4
3B167B50
BB829427
BC59663B
3B55E67F
3BC70328
3C5B7715
3C10EB99
3BAA5233
BC057F03
BA78F3F5
3CBD541E
BAD122A9
BC153877
BC316951
3C553C62
BC5AF53D
3BBB9E14
BC0CD225
BCD9A907
3C806015
BB6DB797
3C430358
3AA138DD
BC8F1BA1
BCA48983
3C7CD8D2
3B97BD39
BB8395CB
BB23162F
BC1F51A4
BB5920B0
3AAB454D
3B2B3FF6
3C1A8D05
3B06BE32
3C3F8841
BB88A108
BA031094
3BC178A9
BC856BEC
BC546108
BCBDD69D
3CF1D742
3B8A4EA5
BC551938
3B93070E
BCA3E921
BB4BC92E
BBBE77C3
BC88206C
BC45583F
BB835847
BC86C789
3C8F2450
BCB87619
BC747536
BBDA4BFB
