3DAF16AD
BCCA2C73
BCA2C757
3C42BF7F
BD0674AD
BD360F32
3D192949
3B4DC769
BD44E6ED
3D147C13
BC0F4CA7
3CE28442
BC01331A
3D7550B3
3B80A86D
BD3F097E
BD1C674B
BD0D81FF
BD79BCCD
BB427162
3CE3F063
BC11C279
BC2180CD
BCBC7A4E
BD2B84C4
BD58E585
BC7435CA
3B8EBC3E
BCE42C49
3D0D686F
3CE4AA04
3D0D7CC7
3C93A8F4
3BAF5926
BBEE98F3
3BCC11E2
BD368DD2
BD2E5ABE
BC08F64F
BD1A8817
3B2DD0DE
3AA72030
BC8CF926
3CB7B5A9
BD98D436
3C484E32
3BB9FA71
BCA2E8B1
BCDA710A
BB007BF5
3DB4E5E7
3D066D9F
BC208C44
BD3DCA4E
3B84F4ED
BBDD090D
BCFCF896
BC901154
BC2AC5A3
3B58C8F8
3CE8CF1E
3CC19A46
BC93B3E4
BCFD64CF
3C7DB541
BBCFA0D3
BB8A3B5F
BC8512FA
BD7E86A6
3BB62332
3CE05BBE
3CE8FF08
3CEC9900
BD193AED
3D0C13CF
3CA498E8
3CD051BD
3BD7B61D
3CC449F9
BCA6798C
BCCE2352
BCD990F6
3C609969
BD972BE7
3D50BE41
3D90D766
3BC91016
BC1C03A7
3D5C8C97
BB45E81D
BCB79140
3CA3AF10
379943C6
BCE37181
3CE3E9DD
3D43FDF0
BD64D3EE
3D112536
3D264ABB
3C987701
BD117B80
3D548FFB
BB9C6E0D
BC9B9D05
3CA956B7
3D5008E2
3CBBE8C1
BB62D600
3C1E27FE
BCEC4827
3C54091C
BCECE0BB
BCB72F3B
3BE6995B
3BCDC2E8
BB150440
3BE02342
3C47F967
3C9217BB
BC94894E
BBCDFC39
BCC79BDA
3BB1B569
3C4574B8
3CD6A417
3CA1D8ED
3BD3F057
3D0229E6
BC1FED55
BD25C50B
BD3668AC
3C9E7601
3C9DA4A8
BD2349C4
3CC09474
BC349940
3D1B7876
3CE93773
BC992C66
3D0103EA
3D0E887C
BCDABDA7
3CFE5D39
BC9E547E
BCEC5A6D
BCC3883F
3B5C69C4
3CB67353
3D35C26B
3C20B28E
BD2E387D
BBAD7228
BCB95890
3D204E34
3AB7CA2D
BD1F5779
3C5B6D6F
BC5C12D3
3C2DCB2B
BC4DCB11
3C925461
3C1E4C5E
3D5C7AF8
3D23A67B
BCAB0EAB
3C68295A
BC811061
BB674F0F
3AE906EB
BC0DD65A
BC0FF444
BD02E404
3B443B36
BA81D975
BD3B3006
BAE0B8AC
BD30C0A4
3C9DB86E
BD4F851A
3CB7644B
BC1C3956
B913C837
3B78602E
BCFADB38
BB6BDEBA
3D3B2A33
3D1842C2
3B483FEC
BD3B22C9
BCEADD1F
3C877CA4
3C845FF1
BD3611D0
3C98C6A0
BCF0C9A6
3BBAC2C1
3C278642
BCFC1109
BD304003
BC799D4E
3C0210E9
BC90D486
3DBC2FD3
3C5A426B
3BE49D42
3A0AEE8A
BC4ECFC8
3D1D0059
3CD963AF
3CD9C0D5
BD8A831F
3D8C5970
BCAF7370
3D801086
3D0AD60C
BD1A0102
BBE3FDE2
3C056839
BD2F370E
3BFD36F9
BD121455
BB18B34E
BD027E40
3CCFF55C
BD154B0B
3CD472BD
3D3434F9
BCCFBC1F
3C893C58
BCBB21B9
3D87514A
BD651B00
BC2BEA3B
BC047A46
BADDC192
3BBF9D26
BCEC89EB
3C91DF41
BCAC2FCE
3C99FFAF
3D9528B3
BD493301
3CBBF5D8
BD452630
3D36B5E3
3D4ABF91
BD80726B
BD934229
BCAB7AA1
BD0ABBB0
BDA5A576
3C6125A9
BCE9FC92
BD81961E
3C07BA11
3B50E28A
3D556CE6
3B103E97
3C304C32
BC8120E3
BD0A187C
3CC34D9D
BCF4CE99
3CAD43A2
3D7C0185
BD97821F
BD5EE2A1
3DA26950
3BCA68A1
BC845AF7
3C5B96AF
3D43340F
3BCD89E9
BC8C302D
BD492E35
BD68746D
3D9B0857
BD909EC3
BCB93DEF
3B2FFF35
BB7E7025
BD18CD89
BC50B6DD
3DC72C68
BD15C7AF
BDEB2586
BC8CAE0C
3D6E714F
3CD13CF5
3D4D91EF
BD2EE1AE
3C99B0FA
3C39A325
BD0ACE0D
3D39878B
BD01149F
BC3CDB34
BCB8032B
BC847930
3D2B9394
BC8298D2
BC57B839
3D0A9168
3DE3DD01
BD336FEF
BCA89137
BD068ED7
3B786BA4
3C73DAA4
3B19769F
3AED598C
3D91B197
3D5FC69D
BC142B0E
3D26BC43
BB62BA7A
BD25DBFB
3D483558
BB6F5E6E
BA488B01
3D9168E6
3D50EFCC
BD0B01B0
BD0E3D8D
3D3067E2
3D3A086C
3D3DA7F2
BC97FAB2
BD856A5D
BD5D92EA
BC4EE029
3C8E5F03
BC513149
3CCE7B40
BD5100BE
BC9E5824
BD0C103B
3B583674
BA335B22
3C2169EB
BD7D7F23
3D63B03E
3C5651E1
BC141FF7
BBBCA869
3D83A258
BD05A8F4
BD37EA7A
3A84FDE8
BCB571F9
BD84AC92
3CC1AAC2
3D42CA62
3D7D6BD0
BCCD7CC5
BD5DEA7B
3D153B16
3C544C08
3D06A561
BCF648C1
BD41C084
BD1ACBC2
BDAB7433
BD818441
3C9F8419
BCF6DB85
3C1DE443
3D147694
3D4D0682
3B9BD243
BCB6BAD3
3D28117E
BD1330A5
3D23E9CD
3D04D518
BCB6F5AC
3D3FC93A
BD97192F
BC75C19A
BD52D06A
BD1F6062
3B3051DA
3C990786
3D22A342
BB842E82
3CE72811
BC6AD84E
3CF264DE
3CFC2941
BC1E3117
BCD2267B
BD417A65
BC817281
BD6D997D
3D3C9F5F
BD21A355
3C3FF76F
3C7493C8
3B2E5D22
3D78C41E
BD45B2B8
3CB4EAFC
BB0C9403
BCF5F2A2
3D290868
3D00C300
3C090C20
3CCC2954
3D14BACB
BC91A9D4
3C8D7AC1
3B7925CD
BA835B4F
BCB886FF
BD0F8D64
BCC95DF6
BBDCF9FC
3C2B8F39
3AFF655B
3C81CC57
BCC8DF24
BD29CC15
3D22E3CB
3CEFC8F9
3D309114
BCE6C5AE
BD0EF6A9
BCA119FF
BC313926
3B54C0D5
3CC2B82B
3C1F3DEB
BCAF1CC4
BC812371
3B1F0F14
3C2A4318
3D2B4029
3C59C437
BCA57A6F
BAA55D3A
BD7F634A
BAE647FE
BC741354
3CCE58E9
3C5DD33C
BD57D113
3A177EDC
3CB24E0C
3C3A7F05
3C197953
BBFDA9A0
3B18838D
3D0339ED
BD328B85
3C001823
B9E16D0A
BD124910
3D32D949
BD26AB2E
3C689345
3CA6D2B9
3D24AFF6
3C8A3FA1
3D563BF3
BC9DF10E
3C802D31
3CC45ADF
BB492F72
3D4CA346
BC81D105
BB45FC9C
BCE61A46
3B69B159
3B6029AF
BD1E38DB
BBABD43C
BD56604C
3C01F447
BD01C02F
3D25BEA8
3D4A6C73
3C076A36
BD68DF3A
3CEBA94C
BD15C98B
3C54B21A
3AF677D8
BCFCD60F
BD527462
3AAF4481
3D09ABF7
3CA5081E
BC71C6AD
BD0B23AD
BD142362
BBBC6EE4
3D3E3E01
BCFC6A8C
BCAB4004
3B26517F
BBE21098
3D8355C8
BA172DF6
BC29B65F
3C9F5492
3D939331
3C7997C5
3D21432D
3CB56F2E
BD271600
3CCEF436
BD09CB2E
BC1453AC
3D9C85E0
BBA54151
3A2D5EB3
BC882C4A
BBEEF8E7
BC7676AB
3C957BF5
3B2FDD0E
BD68916E
3C83D43A
BC523BBC
BCDF0AAF
BCD3C183
398F53B7
3C7318A8
3C812BCD
BD1138FE
BD6D0151
3D1B6AD8
3A95DBD9
BD43FB54
3CBBD599
BC85E645
3D05655B
3CC538CC
BC3C28E0
BC1DAD45
BD60C1F3
BCCAB3E3
3CE0ED82
BC0F46F3
BD3A914C
BB9A7E5A
BB2929C6
3C40DA97
3D801DFC
3C4FD50E
BD461E73
3C199827
3B84D401
BCAE6C2C
3C49DF3F
BD92AEC0
3BE86998
3D2A9273
BC0D35BE
BCA27843
BCAB8DCC
BC959E0C
3D3D99FC
3D65746F
BCE46968
3C36234D
BCD57CB3
3B146B5C
3C51BF33
BC4227D1
BCE37AD1
BC97468E
BD1B64B0
3B960D64
BD5EF69D
BD250B0E
BC1D0D34
BC87A2F0
BC28ED23
3D08681A
3C89F0E4
3C9C3BCB
3BEB8C8D
BBFEE25D
BD024DE5
3B94470C
3D4693FB
BC0A3E08
BD3DFAC6
BD329B66
3D088134
3CA4F339
BC79362B
BCD5CD16
BCE721CF
BBB7786D
3D1EC5FE
BD4AD836
BD721AB8
BBF128A2
3C851007
3C25D05F
3CD86EA5
BC4525AA
3C0D3DD2
3C26AA7A
3D20ED71
3D045ABC
B98236BC
3D106258
BC8F0BA9
BC98542B
BCDAFFA8
3D2056C8
BBB1E65B
3B677C4E
BCFE2344
BD0962F4
BD010FC3
BC869145
BC7BED13
BC6C4B6F
3C28F47A
BC7CDD91
BB513E24
BCF18111
3B8144E8
BC89AC9F
3C9C3BB2
3C4B884B
3CDBB707
3D0D579E
3CBE1102
BCEA6AF0
3B9B93BB
BC407A2E
B9180E20
BB95A766
BB6ED82E
BD6551DB
BCEFB60B
BCE5BE75
BBDBDFFC
BBB7143B
3C0762BF
3CE4EC2D
3B533263
BCC5C8BB
3C1A16B6
BC85E997
3C77D8D5
3CF2AF0E
BD04FEB1
BD11C42C
3CB99338
BD04D158
3BF43EA4
3C936127
3C5CEECD
BAE5AAE8
3ACEC1F6
BCD53750
3CEDC7C5
3CAC067B
BC220A16
BC1F3B8F
BCD0106E
3C3C493C
3AE98D9B
BA748CE4
3A03A2D0
BB623CC6
B9CBCFAC
BC8C1361
BC7AE25D
BB9D733D
3CBD01F9
3C9380F5
BD153481
3CFC11D5
3D127503
BCC70E64
3C82F69C
BD017DC9
BB9795FB
3D468AB0
BCBC0AF4
3B15D7DC
3CBD8F81
BC097B02
3C29CD85
3D2128E1
BD36B80F
BCB26DB6
3D04057D
3CB1637F
3C14C4FE
BC226F6B
BBBDAF11
3C251BF2
BC2CF55F
3C4AF13E
3C97617B
3C3E9D20
3C854999
3CFFAAE3
3CF5D0C5
3D4397F7
BC2663C6
3BAAC530
3B7E4F37
BC0E3706
BC92182C
3D9286A6
BD140352
BC9427A2
BD1271D6
3BD331A1
BD08BFF6
3A6442C4
3A80A2AD
BD0846C5
3D356D36
BD0376E6
BB6CE488
BD06441B
BC19C683
BD1A9C50
3C9589C7
3C89AE24
3B88421A
BB7D859D
BB9071CF
BCBE2D5D
3B269575
3B90B614
BB83ECF2
BB0EEE9E
3C190381
BC9AA816
BD8E8063
BCE526B2
BA8F7FC7
3CBBC1DB
BC58CB98
3BAB7C82
BCEAC3F3
BCC71AD5
3AE8667A
BD47E1CC
BC3D9A87
3D3F3BAE
BC578A0A
BCBBA691
BC3C08A5
BC98ACC6
BCC03514
3C962F71
3A45A962
BD226F8C
BBC5F876
3BF808F8
BC9A54A6
3D289A11
BCE2ED54
BAABF8A1
BD7784C9
3C9C28BB
BD085054
BBD90DEC
BB023984
BCB4FA17
BBB4D107
BC24454C
BD068316
BC25C159
3D4052BD
BCAE366E
BC16848B
3D3FFFE7
3D901B4D
BC87B655
BC422F9D
3C4CE908
3A51755D
BC60C944
BC49482D
BD0E65E5
3BC62103
BC1A8660
3CDF7E39
3C6BF923
BCD8C6B7
BD1DB823
3C303830
BB498F4D
3D56498A
BD0C0C4B
BC1A4229
3D03459D
BD1AEA4D
3D022146
BAF2E06E
BCC03560
3D25176E
3D54F46C
3C1B4704
3C99F49A
3D330CD2
BD442B06
3C505BA6
BC1F0528
BC0A24B1
BC50186A
BBFDC33F
3C9DD96D
BB68BB58
3C0D2405
3C209391
3BC6B427
BC39E6AC
BC6B53CB
3C44234E
BC9FD93F
3D3C47FD
3CBAF148
3A8E6224
BC14B88C
3C3C2BFA
BCA991A7
BCE6A210
BC9906DA
BC1B6BE7
BD21501B
BBFA7C92
3B373708
3D594046
3CD2C09C
3B8FE4B5
BC0574F9
3C89526D
BB89C669
3A033363
BC6FF12F
3BB7A1E2
BC0DE365
BC29B745
3CCC58A0
3D12D6CA
3B279028
BD496C9D
BB36B2E2
3D056FEF
BC9D0D27
BB81288C
BC4E4163
3C3FE006
BC2F2605
37027AF0
BC58B14F
BB7B70E0
BCC9ECAB
3C806A7A
3CD6712C
BD1067F4
3C16C467
BD07A64F
3B4A5607
3D32BD7A
BC02EE9F
BCEFAD6A
BCE3152E
BCE70C6F
3C9A9AA3
BC96683D
BB4A6811
BD153126
39292742
3B7D1455
3CB75FEE
3CA51146
3D217025
BCFBEBFD
3D6351E5
BD4A627B
BD3C9FF8
BC44BFCB
3B99DE62
BD8D18D9
BCC39AB3
3CA2B092
3B15ED78
BC2B8E33
BCAAA291
BD150E28
BCD4379A
3D2DF8C0
BD275EDC
BD099B18
3B0036D0
3B3DFB10
BD16AE93
3CB56B6B
39E475E2
BC04D6E7
BD198079
BBF08F32
3D17E731
BBAF1A7D
3DB71FCD
BD6CBE88
BC5FCFF2
BD59018F
3BB3573E
3C57CB4C
3D07D2B9
BD24884B
BCC4BCE0
BD78790F
BCC1A56A
BD2811C9
BD336073
BC24076D
3C946CDF
BBEB86AE
3C9CB9A8
3C23038B
BCE56774
3D370020
3D15BAB8
3DF00836
3CD8A1D7
3CCFE6D0
BD50BA85
3CF7F5EA
3C190AA8
BC8F29D0
BD671390
BC83834F
3C350773
3C728A9B
BD683AC9
BB99F568
BC765960
3D0B35CA
3D4E1E85
BBA37BAE
BD435D19
BD282ACB
BBF6D409
BCD2CCC5
3D163A05
BD6B7BE0
BDB903DA
3D08F380
3D1EABC0
BBD4CBAE
3D8822DC
3BCAA6B9
3B98E164
BC88E25D
3D002F9A
BC9EC867
3CA72914
3CC5F355
BCFA28C9
BD1A7FBE
3CE4CC8C
BCB7D24B
BBDB2D62
3D2AA5A0
3C91EDEA
3CDDB338
BAAF15EA
BCB373BC
BD3E1383
3D842893
BC85AEDE
3A987EED
3CBC8E57
3CBD9485
BD8D01BF
3901256A
3D1664A3
3C387F41
BD80E5E0
BC960C47
3C49D864
3D6B3840
3D1D7049
BC8A1D9D
3D163B0A
BC2473D4
BCC790AD
3D8614C0
BCF30374
BD22431C
3CE7DC11
3BC65CAB
3D9B6264
3D167717
3C3B4526
BD91AFF3
3CB4EA9E
BCEF9B2E
3B93FD68
BB7F3D46
BA0289F8
BD3E4FE7
BD7E6E65
3DA9209F
BD0F08AD
3D275183
3D0DF84C
BCFF4BC1
BC77D0A0
3A698513
BCA37BD9
BC585C1D
BD204C00
3D430277
3D8F084E
3D105220
BAC9E289
3D3C109C
BD932915
BCF9AA6D
3BC1D60A
3B8EEAE2
3D1C2547
BDADE18D
3D0A17F0
BB9F6CAD
3D81B172
BD1D0075
BCCA2D40
3B6518D5
BCAA79CA
3CB4EEC5
39BC41E8
BC57B7F6
3DAF6065
BBD20B46
3D32D061
3D6DED28
BD3E8A2D
3D276B8F
3D3E222D
3C6F2CE4
3C13CCD6
3C4982F5
BBB545D7
3D8D3779
3D337405
3CB296B6
BD6D0973
BCEA2047
BD9E095A
3CEDAA88
BBD42556
3D83CD90
BD43763B
3B9972B1
BCECB32A
BD8ADD53
3D802004
3D9406DA
BD823286
BD325D02
3D154A2F
BC7827CA
BD0B36D8
BD1FB65D
3D154265
3D9228F9
3C917799
BCEAF878
3D87930D
BD2E5B7D
BBDC5F6D
BB661A40
3CD34EAC
3CE64FA9
BD6EBBD4
BCEB7F75
3D3AF874
B86D593A
BD5AB510
BD035E90
BC90D64D
3D20EFB5
BC5385EB
BD066319
BBFD83F5
BD45E30F
3CF908BA
3D48C88B
3C155634
3BCC5CFD
BC0D82D5
BD0849DF
BC26F9F6
3D4487DF
3D2F0F73
3AE9E157
BC2140A2
BD0F25E3
3C4525CB
3C9769D4
BD12BE26
BCD1A925
3DDBAC5F
3D06DDB0
3D8AC4F4
BBB46886
BD50386B
BC98E735
3C303B69
3CAF90AD
3D99444F
3D16744A
3BC964C8
BC225E27
BD5C342D
BCF4392F
3C39ACD4
BC8E2608
BB35D287
BDF24C4E
BCE4DE65
BD424EE1
BD526554
BD7E9FA2
3C930D17
BD21FD79
3D25C517
BCF12AF0
BADF5EEC
BC079D9A
3D125856
BC4990D3
3CB225A4
3B5774D1
3CBC376F
BD8A405D
BC0039BF
BD93E25A
BBD89A47
3C234B1A
BC4C6053
BCB001E9
BC3C07AE
3D45C2A3
3D7A5950
BDAB4485
3B00C388
BC63B137
3D21B1DE
BD56B75A
3B50CA52
BD277D6F
BBC3896B
BDB9C548
3C47163F
3D82E08A
BD3DEEB2
BD030A69
3D3ABC3B
3D288F48
BC03394E
3CBBD346
3D6D34CC
BBEBB32E
BC82D381
BD292565
BC9334F3
3BCF40E8
BDDE1B65
3D8C7471
BCA1E278
BD0C1C27
3D4FB282
BD7547A9
3D7D194A
BB1E9E1A
BCCC7A4E
3D238CAA
B91F0C03
3C192DC7
3CC4D4F4
BD658674
BCD56F0F
3D5A3B46
BD77F6CF
39B49973
BBE9FAC6
BD03A5A7
BCF9AD9F
BC120A94
3CDDF189
BCA07440
BC632664
BD0B3384
3D4DF6C8
BD117871
BC480237
BC33E202
3C199CE5
3C820943
BCF862C5
3D599460
3C1D85C7
3D4C7039
3C4CACD0
BBDBC31A
BC19C19B
BC7ED0E3
3CE8165C
3CF9E0D7
3BA6A4D0
3D2B686A
3D0A7490
3BA39C65
BD31B697
3D824FB0
BB9372AD
BC10C92C
BB8D6F78
B9DF6CC6
BC54CFA3
BB8E19C9
3B1ACB3E
BC847948
3D20F0D6
BD322E7A
BC0CA2F3
BCBF1919
BC40E820
3C3A6113
BC9CF551
3BD972FD
3D411942
3A77D963
3D0647CE
BCEB64B8
3BFF80EC
3C54C56A
3BB3DF05
3C12DFFF
BB98C580
BD0B2164
3C01F98F
3DA34FC1
3C5D550B
BA419D59
BD0FB57A
BCB999CF
BD1A180A
3C41BAA6
BD568218
3C562139
BC13FFFE
BD667350
BD55F708
BCB4E430
3CCC358C
3CF6290F
BCD4D031
3CD36B74
3C847114
3D1265C3
BA58F51D
BCB8447B
3D054452
3C3F7C3A
3D0AB9F6
BCCC7727
3C74E53B
BC8AA26B
BD096940
BC5F6191
3D18E04E
3B7ABFAD
BB9EA7B9
BCD48480
BA226D52
3BC98EB7
BCCD1254
3BE69B9C
3B77CEF2
3C8DA6C2
BCA4AAD3
BB4DA7FB
BC82C63D
BBA0037C
BC2BCCF8
3D753A43
3C2B4643
BC12C1E1
3CB54F52
3D94959A
BC47D622
3D2C107A
3C847DB3
BA9A1EE4
3D07B4AD
3DA0078A
3D9A743F
BC5B48C6
3B8F33BB
BC18DC59
3CD7ED66
3B34750A
3E62F883
BD11FBB9
BD29C1B4
BDB08596
BDAF9452
BD89A780
3CC29339
3C7568C2
BC86CCF7
3D04C530
BDDBFD5D
BD1C7D88
BDD927E9
BC890303
BD0579C4
BD4D5950
BB0E7630
BC2FBACA
3D726A93
3C821D69
3C3C6CAD
BC0F4CFA
BC5B2673
BD5AE00F
3AFAB846
BC3F9E26
BDAB60B6
BE1D964A
3C262076
BCA9833E
3D0D3CAF
BD925C08
3D0E6678
BD457411
BD80EAAC
BB96E3D8
BD9FF934
3DA878A8
3DA375D8
BCCEAB1F
3B59789B
BC8FA4D0
BD9AE9DD
BCE45559
BC84531A
3C26E03E
3CACB285
3CDABBB7
BD84AD84
BD2E5B7A
3CE91624
3C2738D6
BCCBD282
3CA2E1CD
3D3066A1
BD2D9B88
BB88AF73
3D987348
3B2DCA4A
BCDC0518
BCB3038E
BD2AC229
3D03B2C7
3DBA9BD5
BD33F988
BCBDA0F7
3D320253
3D339727
BD2CF1C4
BB2A7C79
BD822C94
3D13825B
3DD65E56
BCB3F3C7
BC749988
3D48A29E
BBB26B45
BB096954
3D84CC7A
3BFB5C91
BDFDD038
3D372D06
3D3B730D
3D375091
BD3BA0F0
3C56264C
3CD29D96
BC8E5CF1
3CB759ED
3CB3D33D
3D206C0B
BC0D8666
3ADA3EBA
BD2D9F67
BD4FAF8D
3D159283
3C8CE1AA
BD5EA306
3BB7D79B
BC5B713E
BDBC47B5
3D9620E2
3C8A4D38
3C43CFA4
3D945375
3C07BC8E
BCB30FE7
BA800D0E
3A1AEE27
BD88B24A
BB353E9B
3CEDF1F0
BBC83726
3D829BD4
3CF7C9A3
3C6684A7
BCBAB239
3D2A6D8F
BCD17D0B
BB7F2F50
BCD8F4C8
BB16F3CE
BCCEA9C3
3C6C8301
3D7C66CC
BB9DC61A
3DA25B03
3D8C7995
BD08CD6A
3D096627
BD762A5F
3CF35C4A
3D174017
BC2141EE
BC973901
3D08C18E
3BF0A559
BD528EFF
BAC4CC42
3B12037A
3D40915A
3C0550F5
BC075C54
3D8D11A1
3C8B7811
3D36698F
BC369E22
3CCE7617
BC85E8CC
3D020C56
BCD2CF25
3D000DD7
BD229867
3CDB9DC3
3CD22566
3CFA8211
BB7CE56B
BD76E1AB
3D09A839
BABC9E91
3D0CEF2A
3C50CF6A
BC15A7C8
3C433C5F
BC939746
3C8D6772
BD43E308
BD8ABD4C
3C2C6692
3D683D4E
3B971A72
BD6F1A46
BD1B95B4
BC8D31CD
3D9B0962
3BFC5DFB
BCFEC9E3
BD134B6B
BC3E3333
3C3A7B67
3D6214D1
3CAFF8D4
BCD81624
BCD4D8F5
3CAE220B
BC0994A9
3CA0A093
BCF37340
BB73D064
BC65449A
BB8EFC58
BB2A1C1E
3C8C6980
BBD47C33
3C01CFCA
3C2068F7
BC358891
3D1BD780
BD38C71F
3CB85E67
BA1CF37B
BBE0F87B
3D443517
3C9C5B07
3CD997BA
3C943D56
BC9ED589
39F1010C
3CA2D639
3C9133E8
3CDD15DC
3D71E78B
BCAD8448
3C852BC9
3B05E0DE
3D17E67C
3BE1D82E
BB682754
3C237613
3C4ECD3E
3C0DB524
3B814EC4
BD0A6213
3B04967E
3CEA9B29
3CA48175
3D096ED7
3B4E0731
39FD4E15
BB669E7C
BC56ACEC
3D928542
3C88189E
3C9C1312
BCBB7F80
3B8E0F84
BC7B2569
BCF9A835
3BE74F76
3BB7443F
BC2E2972
3D024296
BC8C4E71
3C07CC47
BC20BBFD
3D7C7620
BC5C4362
BC59B896
3C5B624D
3C99B671
BC43D230
BD252302
3CBCC133
3D337390
BC20C473
3A2131FC
3C7082DE
3C6D143C
BD1C9E1E
BD2CB046
3D157F37
3C7F8AFC
3D110DFB
3C63D2EF
3CBD3FB4
BD18EF54
3C7E3F03
3CE4838E
3AFC33FF
3D3E5D57
3ABB6495
BD12BBF8
BC90DDA8
BD5D28BC
BC43D898
BC80D1E7
39A284D6
3D1F9DA8
3A626E9D
BC8F07AB
3C398468
BA7EF681
BCC6D68F
3D487F61
BB8CC9F8
BB590042
3C118778
BD27C3A9
BB6F2D0A
BCDA2AB5
BCD9F40E
3B05C80E
BC058F90
BCE522EA
BD152979
3C1D67BB
BD28B4C3
3CBF9CCB
BC8E194E
3C1B4024
BCC51AAD
3BCAC01E
3C199F1F
3D3F9F18
3D01987F
3D3826DC
3C3D3405
BBE37EA2
3D120DF8
BC3E21B3
3C78CF59
BC7D24C3
3BFB6B27
3A3E6974
3D46BC38
3BF9E013
BCAAC47E
BD1B7117
BCE86E79
BBFCC1DC
3C41ED6B
BBA464DF
BAC30C47
3C1BF718
3CBD3EBF
3C0DC84A
3D4913A3
3D67B187
BA01E8DA
3C19A598
BC7CAA91
3C623542
BD259D57
3CBF5121
3D25B4FB
3B7525A5
3D10F2B0
BC01904B
BCDFFFA2
3CD00D97
3DA05A71
3B378ADB
3D1DA5E6
3C030802
BD3145DE
3B254C49
BCEB87E5
3BDC4D30
BC8328D4
3CFD2119
BC933D80
3BCD0BAC
3C91DE33
3D51A6DF
BCDEEFD9
3C502228
3C004F58
3C9FA0A0
B9A87970
3C592E00
3C3D237E
3C8E2655
3D271151
BD178214
3CF6E251
3C051A65
BCB3A991
BD241D58
3D3556DE
3B9A5214
39912F0F
BC89A568
BD38B72E
3BAAB489
BAE7D2D4
BCF5410B
3C53B636
BBF91B66
BCA44FA9
3D24097D
3D426F71
BD24A069
BC9DBB52
BCDBB977
3C02A294
BB80D840
BDAB08E5
BDA224AE
3CEC04BA
3C219863
BC86C785
3D0066A7
3D23DBDE
BCDA35B7
3B67BD8A
3D73746A
BD27C74E
3CB21AF8
3C83E523
3C86F839
BD446150
3B800D46
3CDBD55A
3CFFBF5D
3DA4A660
3D7975F8
3C47F6A7
BC29DA8B
3ADFCF29
3B136332
3CC16A2E
3D7136FA
3D710DEA
3C8019C1
BBEE717B
3C542A6F
BCB5AAB2
3C7A5A5D
BC959DA2
BCA249FC
BC93C97F
3C0C95AC
3C848B76
3D37F7D7
3CFF4DB1
3BC95BE0
3D939C04
3D20CA0C
3CFB6A36
3C81E2F4
BCA18731
3D42FF9B
BCA0EEE4
BAF0A9EB
3CBF1DB1
3D03C37F
3C133D63
BDB94A56
BCAF3639
3BCEF447
3C8328BB
BB121ECB
BC6E084D
3CFA98DD
BB54B1CD
3BE2C7FF
BB28BA67
BD594F0C
3C8ADFF0
3C189CCD
3CAB745C
BC878903
3B8ADF82
3D00CA94
3C16F7AB
3D79C883
BB4C24C9
BD5B3F29
BCA6669A
BCFEBAD1
3CD9CEFB
BC3F59CA
3BE5A24C
BD0AA4D9
BC49AEDE
3C910E2B
B84DED84
BC00AFEA
3D38ED7C
BCCB2813
3D8BDCE0
BD97DAED
BD5A6FF0
BC308334
3BB1607E
BD84066A
BBACA7FE
3C034173
BCBBD598
BC1FC415
3CA5BA9C
BD137313
BD4F5A98
3D690B0E
BCFD06ED
BD2612B7
3C5082FF
BD7A568F
3C07A7AC
BC5CCEBE
BC9FC2E7
BB50A9AC
3C96E9B2
BD231C46
BC33B84C
3CF67253
BD316A14
3CF284A3
3CFBE97F
3CDEDA97
BD1CB92E
BB21013D
3C3FAF62
3D3B20BE
3D2EF7A2
3D5A6487
3CDD46D2
3C461C3A
3D3307B9
B923302A
3CE54F65
3B84875D
BC1E7A96
BB120992
3D0C6FF7
BCEE9B76
BBC49EE9
BCB945AC
BD3A8174
BC907F16
3CDD07C2
BC08E47A
3BCF1177
3B9E583B
3D1CF49B
3C73D926
3D89CF71
3CF1D554
3C8AE532
3C36D52E
BB3455B6
BCE1B54F
BD0497A4
3C7C0895
3D135CAE
3CA60754
3C63B694
BD3B8A7D
BD01CB20
3D364DE8
3D9CA8C3
BC9159EE
3C1DCF29
3C178863
BC4CCC20
BD063B91
BC124840
BADF3C82
BC1D1E1F
BAF9D40E
BBE85657
3C0E184A
3C872B5E
3D109CA6
BC646DD9
3C22A893
3B9E21A3
3B3EDAD2
BC0689A3
BBF64486
3C00519C
3CBD570B
BBF1C541
BC89B722
3C24293C
3CA00848
BC4E4B8A
BC60ADA1
3D1E3369
BC04A44D
3C25A3E1
BD3F23E4
BCC948AD
3D0399EA
BC763527
BD0D4CF3
3CCB662E
BBE1C489
BCDEFF63
3D146724
3C933BDC
BD406BD2
BD08392E
BCAEBF8F
BC34D4A9
BCCD789E
BD0D85A4
BD1A10A1
BBCF7E19
3C48A04B
BC81A930
3C1A8F79
BA2D850C
BBEE1920
39D74437
3CEEEA26
BD2D0549
3C0B3564
3D62DE47
3C486A55
3D1C94A4
BC2F445B
BCB07E07
3BA2F468
3CEC1683
3CA41358
3D147502
3B36EFA5
BC8F151A
3A8E9146
BD176497
BC973F33
BCD6C9D9
BCA6AD9D
3ACA7E54
BD0D23C1
BC2AA234
BC35BE41
BD079D8B
BD02A0F3
BB2640A9
BC2E97DB
3D0E758E
BC0F7D6D
3A5AF620
3BB0A6F2
3C0F1638
3CDC774F
BBAB4254
BBD8D8FF
3C7974A6
3B7A07A8
BC6CBF47
BD01423F
3C0672F1
3AD6E0DA
BB997D63
BC4CFA34
BC2CACCA
3CE6679B
3D4FD109
BD253EEE
3C954C3F
BC021178
3C0C4B48
BD4AE321
3C6AE701
BC428102
3B929DA7
BD1D2629
3BAFFF17
3CF69FD2
BC8CEF6A
BCEB161C
3C9B2A43
3CB4E368
3B0066CA
3B9E8E1B
3CC0DF30
BBA63CC8
BC42E522
BC58434C
3BBA895E
BC103E56
BD155A43
3C733273
BB6A2613
BC4A79ED
3D26B03F
BD55B104
3BB2BC52
BBC39DDF
BD25E3D9
3C59D164
BC1D11FD
BBF4A71D
3CC7451E
BCF402DD
BC61CA8F
3CF75E0F
BBBBB107
BC7BA20A
BBC9E0D3
BB602741
BCACE137
BC5A98FC
BC69D2D4
BCEC1DA7
BBD55E08
3B233587
3D75B7ED
BD1E8014
BC3BCEE3
3AC76958
3C026E59
BBBB2532
3B3069B1
3C8C4464
3C720E15
3CEDF99D
3CE909F7
3C8E543A
BC6D49C6
BD0EA070
3C97AB20
3B86A707
3C2B435C
3D0463EE
3D2D4C88
BCA3C552
BD428343
3C84B729
BC0E10FB
3C93B1DD
BC323E94
BD001A34
BC475444
BB8F2BA9
3C92F5F9
BC4218B4
3CC919C9
BD012EE8
BC242B99
BCF65E9C
BA71975F
B9E91F4A
3C10EBBC
BCA598D0
3CC6F34C
3C02BDD3
3BEA91F4
3B2D7046
3D43D8A4
BC8672BA
BC9AEE2D
3B3A693D
BC95968C
BCF53374
3B565CF3
3C9BC71A
3D3F9E34
BC5BE604
BD0D2A55
3BB969E3
BC161BD2
3CA7B0EB
BC880923
BCA1A987
BC8B539F
BD437BA2
BD2D84A8
3CA2154F
BC257F80
BCB6FED3
3C06D029
3C29BDF9
3C27493F
3C66A3D2
3D0891AF
BC80DE6A
3C268ED1
3A898C15
3C5FD00F
3C1E1293
BC9784FB
3B2DF5DB
BD0B5FFA
BCF72B12
BAA789EE
3C694896
BB8EB865
3B6F7DAA
BC569FED
B984A792
3C111E79
3CE3EAA3
BA795140
BC2F0BA7
BC6E51E4
3C1EE2B3
BC773B53
3CCC66C7
BC923BB0
3D244D5A
3C5DE890
3B350EA3
3CD52FE1
3C399C40
BD3D85FF
BC776110
3D2420F2
BD373A21
BD33AC12
BCA7A0B6
BD2B79B1
BCC04078
3B9779E8
3C5080AA
3BD6D88C
3CD6671F
BCCCDB55
3D215C3C
3D1B8EB4
3CD796D1
3D2AF144
3C1448ED
BC7FC057
3C91D08E
3DBA02B4
BD17421B
3D18C285
3CC73654
BD3EE6D3
3D269261
3CADA695
3C2AEB72
3C931AFB
3CC31C5F
BD172234
BC747897
3DA49B52
BD14FB38
BCD1C658
BD309F1B
3BD3AFAC
3D055443
3C7DC18B
3CA6C870
3C2DBF2E
BCA3AAC0
BC85DE05
3D3AAA0B
3D370D8F
3CB4AE55
BC819580
BD0BA7B7
3BEC815F
BBCB5ED0
BCC3DFBC
3C3555A7
3BCEBBB5
BC8F8884
BC2D0EFA
3D1EE699
BDBA1024
3D8BA696
BC034953
3D50D921
BC8946B2
BCB500F3
BDA92F8A
3C799351
BB683826
3D233EAE
BBC8BA87
BCAAA950
3D246317
3D8DF403
3C638AB6
3C3239E8
3D5BE9FD
3D8A0DA3
3D7DE962
3D6F3B2B
3D241B89
BD7C199A
BD8688E4
BD10AF44
BC1B7C15
3D8B31F2
BD87E940
3CB4B915
3D4C0637
BB169B5A
3CF3FE9B
3D039C10
3C8F0DD0
BCE395FC
BCED5FE5
3D0D081A
3C01845B
3CD016A3
BB2FE5DC
BCCFFDE8
3D54400B
3CC787F4
BD21FEB8
3D47057A
BC10067E
BD3943B7
BC6D4CD0
39FB0250
BBB30966
3D744204
3D4B21A7
3A961BD4
BCBE888E
3D046B90
3CFD2B93
3D019055
3D85989F
BD861324
BC10BE9C
BD17652D
BCEB5514
BC8ED119
3C73855A
3C5E03BD
BCE3DB9F
3D8B0252
BD0CE28B
BC112AE0
BD448357
BD4DE4DF
BCA50AD0
3CFB3B49
3D68225B
BB59F465
3C86065A
3C9B9923
3CB46844
3C49A08E
BB019733
BC20359A
BD092F45
BA31E735
BDA7F8DA
BD195D59
3C7BA173
BD1BB57E
3D6655D1
BCD491BB
BCFC0D64
3CF4D47F
3C263091
BC19738B
BCF2DD76
3D3E9994
3C5BE391
3CED787D
3D28BB27
3CE70CAD
BD2EC0D8
BD8A6A43
BC582EBD
3BE0F675
3CE8C7D7
3C3DD4C8
BB9E045C
BC86B56C
3CF56895
BD0E8FDB
3D1ABD9B
3D0148A6
BCE09BAB
BD2D68A1
3C632E94
3D8C7EE7
BCF03C48
BC542070
3CF64647
3C5463E4
3CFC1F31
BCD349DD
3B9DA169
3C9351FC
3D2DC9D1
3D5AC749
BB589F1D
BC403BEA
BCFC4D6B
3D18F2B4
BBEE4319
3BCE6E49
BD895152
BC821A17
3C71AFDA
3D4B631E
BBE2AE95
BB6A2DE1
BCB87C1B
BCA99868
BA8D9BC9
3D033060
BC0729A3
3C58C6EF
3CEDBF98
3A968686
3C053DE5
BC3365EE
BD317A72
3C780B56
BB2F01D5
BCF09C3F
BD3F444A
BBA6CB38
3C0B7B24
BC8729B4
BD870844
BD005CBD
BDA94255
3CB57085
3CE670E2
3D757175
3C0BD2A2
3CA63536
BCF80B18
BD0E7D2A
3C2AB3D2
BC2BBF71
3D8B3862
BCA6C6AC
3D1AF3EB
3C71DECB
3C971897
3D3B3570
BB709C10
3CD03708
BC5C8CF0
3C91F836
3C379FD5
3CE1BA1C
BC3415DA
3D2FBCF0
3C543CE5
3BD90D9D
3D3AD0DC
3D92D97C
BCCFB0CA
3BCEF650
BD215DC3
3D1B30BB
BCFE7E55
3D0E7D8A
3CD4FFC1
BC45FA22
3D122060
BADA2C70
BCE3FA18
BCD223E0
BD1648DB
3D0BE062
3D4B7C7B
3CE55920
BCB92F98
3C9990DA
3B3A79E9
3C5EECBE
3D3B3C79
3D8803D6
B8887414
BCBE7F83
3C682B62
3CCB2AAF
BC9A4736
BCA90D33
39CCDADD
BC22B798
BCFC73AC
3D0259C8
3BAB6D44
3CAF3AA7
381389F4
BD282025
3D0F1B2E
BC271E09
3B3D0515
3B8AB700
BC2E322D
3CFAB08C
BC7CBF58
3CE72502
BD220C5D
BCA4384E
3CAE35DE
BD181015
BBC5EDF1
3C946783
BC46D64F
3C620077
3D8933CE
BCBE1A2B
3C5EAE51
BD183003
3C8DFEB2
3C40F948
BD69A34C
BD2B9E2E
3CC29001
BCDE031F
3D463B38
BB72791C
3CEB0A2E
BC322D71
3C5A8CAE
3CFC5119
BCB77543
3D663385
BD058C12
3D2B14F6
BD0C28D8
3B0F56C0
3D774FF1
3BF9565B
3D2491A7
3C3A8A88
BCEF7825
3CEE8A63
3D086FA7
3C8B6183
3C8EE61C
3DD53ECB
3BF73A57
3CD68006
BD0AD180
3D06902A
BCB3598C
3D17A04C
BC3DC301
3C6E9DED
3C7496F2
BCBD6505
BCCE2325
3CDB752C
BCAA7205
3C973E90
3D244691
3C9D0000
3CCCD9A1
3C62213E
BC135F41
3DA48712
3CE46DEB
3C8D3484
BB1D180A
3CA07201
BC7CEE52
BD1F7D16
3B854ED7
3D3259E0
BD8487FF
3CC295A1
BD4CAADF
3C85605C
BBE186DB
3D536674
BD836C03
BC2258A4
3CB504A8
BC31F3AC
BCD35745
BD88E9F7
3D0C7277
3C840865
BCA0F24B
3CC8D83E
3C13202F
BD53E266
BD2CA3A1
BD834C75
3D876F7E
3D10F54C
BBF3B190
BBD0EA0D
3BC93289
BC4515CF
BA147DC5
3C819046
BAC86C31
3D104B00
3CEA93AA
BD84ACD1
BD12FC30
BD111B10
BBDAF1DE
BD4CF1B8
BC083C89
3D2CD691
BCB682FB
BD16F0D5
3A4B17D2
BC7ED525
BD122651
3DB2C10F
BB435921
BC990A7B
3D8392FD
BD77F932
3CDEF1E0
BC6923F7
BBE33083
3D1CB67C
3CAE97F4
BD33E4B2
BC8A49CD
3D4B8D54
BCDD78ED
3AE7DC00
BCEBFFB3
BC797A41
BD551C06
3C974D6E
3C3D68C0
3D3A621F
3C95025A
3C8DC675
BC65C8E6
BCC46261
BCE04107
BB3FAA09
3DA999B4
3D641A0F
3DF2DD7A
3C38EBDD
BCD2286D
3D1AC203
BAB4BE63
3CD50BC5
BD3C9CE2
3AE10AE2
BD34762D
3B90EB4A
3C8FB62A
3D822C4F
BBF988DF
BB1DC3CF
3D9BF92B
3D9A7F80
BCA35EA3
3C632B2D
BC841CDA
3CC5D442
BC3FEF60
3B9EE38B
3D09F0AF
3C97EFF6
3D6AA74F
BD884907
BD0431BE
BC9D1F04
BD0FD78E
3CB00005
3C7F48A8
3C98AE43
3C9C44A2
BCA229B3
3B2350C4
BD5C1405
3DDF072F
3C545004
3C6A4337
BCE36D55
3C37A3BD
BD8B4495
BB7C0C10
3D45B4F7
BC9FC7E2
BDB1FBE5
BD343DDD
BD00BA5B
3C7A26E9
BB4C2B60
BD4CD15D
BD232B8A
B81EC45B
3D5DEFFA
3BA2D81B
3C332F43
3CACCC8A
BC887758
3DB8CFCE
BD24CF83
BDD2BE19
BCA98473
3C5932A0
BD8C6FC4
BC62AEEB
3CCDAC0D
BD2A43CB
BBA973CD
3D68AC7B
BD0920B0
BD79E4ED
3C5F7DF5
BBC4A393
BC5E1F07
3D2D25EA
BD2AB710
3C02E092
3D614123
3D1FC0D0
BC5F03B1
BC721C7B
3CB9CD00
BD0D5AB9
3B39EB9C
3CFA1787
BD13DDA0
BB90EECE
BCA53561
BD47D78C
3D7434A1
3BE6C662
3C69E90C
3C8B68CF
3B49C295
BCCD37BB
3C9B8AC9
3D24809A
BD45E287
3CD01AA3
3CF28AED
3CE040A2
3D8109D8
3C906D80
BD04D768
BD61A5C6
BD14E378
3D738E62
BB1F6996
BB28B251
BC1702D5
BD2644BD
BC6CED59
3D294AC6
3C1747D5
3C3330A0
BD0E6957
BCAE5186
3B53A806
BD7D095A
3D985424
3D4DA4DE
BCC80D52
BD01CD0B
BBB3435D
BC099965
BD3DBCBD
3D2AC108
3AEF5C84
BD10BD62
BC099AEE
39A6002D
3D85E89D
BD05F499
3DB84950
BD70B48B
BC369A9E
3CF967B3
3CB616E6
BD0E0014
3C368236
BD2952EC
BD32DD5E
3D216950
B9B6542D
3BD61BDB
BCEB9350
3D1A4B45
BCA73C59
3D0E65CB
3CB1136B
3C9C33E7
3C6BA973
BCEAB290
BD9175BD
BD0A452A
BD0AAF2E
BCE63FA6
3D802332
3CCFE986
BD2410F2
BBAF2306
BD5EDD0D
3D81E689
3C4DC830
BCD269CA
BC9AFB42
3CDB65D8
3C272762
3CEFAA40
3D190690
BC45F17E
3D26CD85
3B3A3831
BB563E17
3C25F98E
BCB41A3C
3CAFF5FD
3C084E0B
BC5544EA
BC6A7B23
3C624570
3B8A8FD4
BC9938EA
3C5B9788
BA431166
BCC3C35C
3B13F3BF
BC83FF42
BCB360F4
3D2B64AB
BCC381E6
3BC5D799
3D2956F2
BAE25C29
3C69F3DD
3AFF38F5
3ADE7002
BD3F9533
BC645523
BD0438C2
3C2AF3C4
3CF890E4
3D4BD7E5
3C957095
BC98740C
BD26BAB7
3C5523AC
BA81E72A
BCA96B1E
3C4C953B
BC2B615D
BB31B472
3CF2605D
BC7EE6CD
3D0C53B4
BC3F512F
BCFE5AA2
3CA3E23E
BD4B430C
BCB0DAD8
BC2ADE3D
3BD3FD46
3C20DB18
3D152300
3C3FA4AB
3C97D3E3
BC3D75B2
BC11EFF6
3D144E0D
3C18067E
BC99DBF6
3D4438F5
BC169603
3C2BE6D3
3C9B2527
BC77B577
BC53F301
3D5E42FF
BB8183DD
3D0192A6
BC964E04
3D282DE1
3C13D12D
BB4902BC
BC024C12
3CDE662D
3CCB5732
3CD5941F
BCCE7D24
BC7FAB26
3C99A16D
3BC98409
3CC667A8
3C0956B5
BD1E22F7
BD82DF9C
3BA126F3
3C8014E6
BD10695F
3B6F41DB
3CA446E2
3D028C3A
3D398928
3C2EE9ED
BC89C44B
BD02F8D1
B96D1E74
BBA7E621
3C764D58
BB6AE00F
3C5E21B7
BD270620
BBB3A1C0
BCCEADC9
BD63CDCC
3C8C3EAA
3C4E41A6
BD25A2D5
BD6B4F87
3C9B407B
3C85E860
3D0FC58A
BC8C7C1A
B9951FAE
3D0BA359
3CBBBD39
BDCBE01D
BD2A6A5D
BCA9B264
BB904414
3D8DE72A
3C5F9BB5
BD0CE4E9
BCF2E87D
BD819948
BD30A8B4
3B8FB635
3CA99C2C
3D823CB3
3D5323DE
3CA01419
3C127FA9
BC01C0C0
3DD307AB
3D17932F
3D86D0C5
3D1572A5
3D5FA8D6
BBF20324
3CC88509
BCFCB492
3D100096
3BF7F82C
3C803DB4
BCE68902
3D30E027
BD4830FB
BC74BE0B
BC91492A
3DCE9EA6
BA3C009D
3D8D1023
3C5D240D
BBDB2813
3C28C220
3B8F0E3D
3C896735
BCB86A70
BD7E4A01
3DBA6C1E
BC81CCF6
3C12226A
3B3E09F5
3D42580A
BBB6C63C
3CAB40ED
BB8FCAF9
3DBA9CEC
3BF7FB23
BD89D0F4
3D36E2B9
3C9974BB
BD2FBDEE
BCF58ED6
3C8D3084
BCD39F0F
BD84AE50
BCFF1DF6
3C792442
3C2CAA11
BC1421ED
BC7B0F97
3DBEE098
BD4ED887
3D08DF1E
3D377F99
BD374A7A
3D4513EC
BC947FDC
3BA17DF7
3BF6EFA4
BD4C58BD
BBEB72F0
BC8889E6
BCC7138B
3D6B529D
3CCE5EA1
BD283BD4
3D85B6B4
BB952856
BC4BF3FF
3D3C685A
3C9A3A40
3B6C5F4F
3BE6C872
3D78C4F7
BCEF0CB0
BD559A00
BD8FEC45
3CADF16D
BD277889
BC945E27
BC3758E6
BC9555C6
BC4E465C
3D18E2CC
BC9823FE
BC4DE5E5
BCF5054F
BD886758
3BE51A67
3C8CC6F8
BD531FE9
3C2FCDAE
3BCFEDA1
BCFB9E3A
BC904AD4
3D491C12
3D5DA4FB
3CC9FE48
BC0EE240
BD964F50
BC8ADC27
3D54A661
3D901127
3D80B74E
3B362AEB
BB277A18
3BACF2E2
3BBB216C
3CCADC87
BB797D46
BD89569D
3C973B7C
BC8F60C3
3CD5EA3F
3B6DAAD2
BCCF1E17
3D820C7C
3BFB3231
BD504B71
3D4EB9F9
3D0F395F
BD4F4F5E
3CC28CC1
3C07A05D
398BD9D1
3C9BF9E2
BC1C6B9C
3CC35FA9
3D6478B2
BDADEB56
BC990DC5
BD1A3626
3CC6AECB
3D118C34
3BBB26DD
3A9B71EF
3C238A70
BC38D51B
3D0E050A
3C8577BF
BD4FDB6E
BD2D82BD
3C7949B4
3D563DB2
BB8FB47E
BBE17816
BC9FFCA0
BA95B96C
3C89DC63
BC35DF6D
3D686570
3B7A88A3
3D2E410B
3D3F5743
3C6D8A23
BD5A924E
BC153EC9
3D33554E
BCF36DF4
3A1BC252
BD88085F
3C42313D
3CC849EB
3C7FEEEC
3C9230B6
3D16A7FF
3CCF1F91
BCAE6FBB
3D26EE90
BD468F07
3C978311
3D26E329
3CC922F5
3BAE17B1
BCF38B37
3C5B9940
BCBA0EC3
3CC1F7E0
BC94FD51
BBC7B110
3C947A7C
BBB1A57C
3D163AE9
BCB43E12
BD2F23C5
BD0D3D8E
B9072A7D
BD0C5EFE
3D54FAED
3A869113
BC3AF232
BCF3E93D
BCF433E9
BCEA153A
BC2EFF10
3D229A7A
3D704D51
3D510BC3
BC15CCBB
BC28300C
BD43D143
3D3A2B27
3D2CC05F
3DB3595F
BD176F4B
3C24AB15
3BA39D4E
3C7A7EF8
39E5C65B
3AEF3449
BD85F257
3CCF0B35
3CD99496
3CD16D09
BD1EEC61
BC1FF822
3C404133
3D8FA47C
3C805151
3C5AA26C
BCB8B229
BD0FF117
BCB63853
BC8237BC
3CE7E632
BCEC2841
BE0912D5
3D09AE88
3CD4DEC9
BCC99B38
39DD2AC6
3C0A964F
BCAC117C
BAD30A2B
3D41C2CB
BA995646
3C4490F6
BD138DA3
3C415978
BD5291DA
BA4F81CC
BC0DB95A
3B80F7D7
BCB14CF1
BD370618
BC268E2E
3D090BF0
3C235CA5
BCB421A4
3C81053B
3C333A06
BC429606
3D5FEB6E
3DA2CCE2
BD4823AB
B99B99F8
3D08E29C
BBAF51FC
BD2F4495
BD86D0D5
BCA5C75E
399C1614
3CBE78EA
3D12DEE1
BC147784
BB80CD11
3D093CE5
3C5A516A
BC896484
3CEF6901
3C764317
3D08AC88
3D8BCBC0
3CE61493
3CDD265D
BC5C44F1
3C4D3A32
BB8E71CF
3CAB9F6B
3D39B3B8
3CA8697D
BC69C164
3CDA2BCF
3C436AD6
BD3DECF9
BC4D03AA
3CFCD32F
3BC76182
BB813DE1
BD172796
BD055EC7
BD1DD7A3
BD1681F3
B91949BE
BC58427E
3AC9765D
BBC1403D
3C2E6DF3
BCA7FD7C
3BF1C1CA
BC1813F7
3D63888A
3505ED00
3CAE0B0C
3D6E7CC7
3D211EF4
BD0F9626
3BEA9718
BCBE29B4
3C4E7AFB
3C8A31AC
BC830601
BD9C4B60
BCBEE657
BCA6F5FD
3B0B8207
3B30E398
BB9BBE4A
3CC499D3
3CD8D460
BA7CD28F
3C95EA89
3B7BB14F
3D1DCCA0
3C34AE20
BC28D1A4
BCCC120E
3D2A5295
BD25FB9F
3A63BD64
3CA88628
3C521B80
3BF72417
3D108405
BCBC17DD
3D25B740
3BB993AE
BD0857D4
3C2FBB2B
BD697C4B
BC28D5B4
BC910D9C
BB9A64DA
BC8E333B
BBE44797
BC20085F
BB665CAB
BB8EE902
BB923E76
B9FACD94
3D223FDA
BD1BED01
3C062942
3C0C13FF
BCF6D06C
3CB3748E
BD878DC5
3BE19304
3DC188D2
3CCF932A
3929D868
3C604D65
BD1AD2A9
3CD1C51C
3D100A01
BD741501
BC27320E
3CBF3995
3D0823E6
3CA853DB
3BE1075F
BC50FFA1
3BCD3531
3CCED186
3C9B12F0
BBE7AA28
BABFA939
BB3F2D7F
3C19499E
3CBB2F82
3BBA09B5
BC734EBD
3D12008F
BB6ADAF4
BD69ACCD
BC9E414C
3B198FBC
3BEE9929
3C938DC4
BBA7A502
BC7C5445
BCBA1B78
BD154389
BBAA571B
BA6348BB
3B4F186E
3C421C3E
3C4813B1
BCD682B9
3C5BF641
BB8BD9AB
3D451CB7
3B52567A
3D0BEB6A
3D00D898
3D01C2F9
BCEFA9DF
3C4ABF64
BCC15AF4
3C281867
BC685A7E
BBCF9135
BD10F3E5
BC8DFA9E
BCA29290
3BBB0E44
BC07C519
3CC47517
3C92EADF
3D07F556
BC0071F9
3C0ADFBE
3BC2B2DA
3CAAC8BC
3C355910
BCDABAED
BC9C2B5C
3D1B6573
BCA208C4
3BB78FB3
BB6D6B3A
3CCF1FAD
3B56739D
3CB74278
BC7D7B6D
3D4DBEF0
3C18095E
BD00451A
3C41AE5C
BD08413A
BC537184
BC893C51
BB555A9E
B9E294D0
BC99A0AD
BB815F05
3AFEE85E
3C6282A6
BC65FAFF
3B59CDCC
3D1D4660
BCD6E056
3C5D0445
3C8C553D
BD01DC25
3CF840E6
BCB11F37
3C092B02
3D23D0F8
BB4C71DF
3B934645
3C2528FB
BCAC174D
3CE034FA
3C9AA3EC
BD2FCC2F
3BDEBB1B
3C97D97D
3CC476C0
B9A309B3
3C21F9F5
BB9A701C
3AA9DEC8
3C9819D0
BD79551F
3B0ECCE8
3CF8F3F6
BD5099A5
BD8231FB
BC6DD455
BD0F0972
BD435935
3ACD1402
3B4401E1
3BC5C2B2
3D2C74CE
BD305953
3C950047
3D27A7AB
3D2A9B01
BD2023B2
3D08DA95
3C28AEE7
3CC09F14
3D8C8505
BCD366B4
BC5BB06F
3CB15C3D
3BA9F4F8
3CF62C1B
3BF794B1
BCB81B64
3A9F4B66
BC29685C
3C0142C2
BBA25AD4
3D9EBE6D
BCB00A53
BCC5BCA8
BD6002D6
BCF24EB7
3CD4C32A
3ADE3BF8
BD2BC53A
3C71EC1A
BC480131
BC2D287A
3C022279
3D293B9F
3CA7F3D8
BD03A642
BD5E14F4
BCA798A9
BA52955B
3C5B5B18
3D41B586
3BC6613B
BCFDF590
3B9BF618
3C06F559
BD5F6B7F
3CA17ADD
BD54B73A
3D1F6B9F
BD2E41FB
BD4E8A1A
BD943FF5
3D0CBC54
BC4CF096
3DCB94D1
3BA7CB33
BD09832E
3CEC0A45
3D834B00
3CFCB90E
3B80930A
3C7039C9
3D278AF6
3D047CDC
3D61FF95
3B754674
BD11CB48
BD547364
BD24305A
3C87F871
3D1E1253
BB992E7D
3CDB8E69
BC0ED11D
BC77A173
3C8E9E50
3D616C7D
3D580BB4
BCF9B182
BC8433DB
3D733135
3CC19998
3CE7D7D2
3C903F03
BD37324C
3D3A281C
3D753699
3AA639FE
3C718069
3CA09C48
3C5AE053
BD33BB04
3CCC846E
3C927E2B
3C54C75F
BA8B4DDF
BC10CB86
3CE15475
BCF44EFD
BCDA01C8
BD1B33A2
3C9D2228
BB9568A5
BC51C9CE
3C47C661
BD092B7A
BC0878BF
BC007E88
BCECD985
BD2E3D81
3BB469B5
3CC837F8
BD4767A7
BB40859D
BC0B42E5
3C354204
3CB155FA
3C083056
3C06BA0B
BB45DED8
3C287CA8
BCF9B7F1
3CD56D7C
3B63A594
3C9F2026
3C179726
BC400F21
3C06CCEF
3C3A04D1
BD10E4C0
3B6A729E
BC74A790
BC70197E
BC9A87FF
3B95FE5E
3B51602F
3B103D33
3C01CA9D
3C666386
BC188359
BD58A181
BAFD8A84
3C423FA0
3CCC5ADB
3C040338
3CA71E89
BB5E4A2A
3D03F786
BA1F03F0
3B2B389B
3D5DA139
3D3F775B
3BDA1BF4
BBCB4254
BC5F4DC4
3BC18F94
BCB9F390
BC95DBC9
BAC23C0E
BC5F81F4
3CC49B8E
BC7A241F
BCC2CBB9
BC93E227
BAA033CB
3BE926C6
BC705FDD
3D034402
3C7C0C30
BCAB629D
BA6CE45C
3C1C26E0
3CCFB95E
BC2F738D
3BE160B4
3BAB4A89
BC363DCE
BC930B32
3B6D0F0D
3CBC33CA
3B523A63
3CD96DA3
BBD9F192
3C9509DF
BD2D0589
BC62444C
BBE2D08F
BD10ECC9
BC6031AD
BC6D59EA
BC945527
BD1ABC35
3CC01B7A
BBCB6CEC
BC530EE3
3B0F3E68
3C65464C
BCECCE43
BC0A6F4E
3C89B53E
BBA1B5CF
BD61E7B8
BD0D46B3
3BDAF62D
3BAE1E23
3CEF48B6
3C3ED124
3CB68CE7
BBED5929
BC22B996
3CC0074E
BC3AC0A3
BCE72D04
3CEADDD6
BD3DFD22
BC297619
BCE30125
3D151D07
3CA6D566
BD38DAB0
BC2208C9
BBDA5A42
3BC2E484
3D1F7FB7
3BFEA6C7
BD308B1D
3BEA5D29
BB8DA1C6
BD27B70A
B95EE105
BC946F82
3D04C8A5
BCE406D4
BD258975
BBB1CB96
3CE1DBF3
BCDAEDCE
3C1BAEB5
3CA38ADD
BCB18580
3CC08DC5
3C3F6CFC
BCA116E4
3D663D01
BD2A7B27
BB3C822E
BD6FE218
BADFD2E0
BC1513EB
BCAAB976
BCF31623
3C861627
3AF4EF64
3C1E783B
BCFDFCD1
BC8272F4
BC1348B8
BBA945B7
3C385D5A
BB8B645C
3CA4BFE8
BB29F4E3
BC37106A
BC8836DB
BCC1AB30
BC95421A
3C591B06
3CA54B31
3C854832
3CE80A9A
BD6CEDC4
3C809178
3C64A750
BCFEED5A
3B8500EC
BD11BFC5
BCB510FE
3C5C6EB4
BB2C5BE1
3BE45666
3CFC4554
3D17360F
BCF522D3
3BD2AA29
BC83AFEB
BB14EB55
3CAB8360
3CC7790E
BD03C744
3D4DD030
BD523298
BD5EC8CF
3D32ED09
3D356B8A
3C41C005
3BAEB2C0
3CD4FBB0
BD0ED4D6
3CB4B4C8
BD5F6ED3
BCBBA420
3B9C6F19
BC3EC959
BA3C5DC1
3CC87252
3CDAD411
3C42F86A
BC189940
BCDB034F
BCBB66D9
3CA8DA75
3D1A7B10
BD225E1D
BBAF1901
BC9EDB04
3C5077CA
3D3A9D31
BBB236FC
3C5AE4D1
3C2895F7
3C807931
BD64DF3E
3CCACC42
393B7CDD
3D970730
3C8A6CE0
BCCB6968
3CAF57D1
3D0724BF
3C66B225
BA7022DA
3C4E89FB
3CCBA979
BD5DB9CC
3CFAA0F0
3D7B3098
3CB7C11B
3D0C7D65
BC1A5BC9
BD3BEBC7
BC53ED73
BA976748
3D1B2A24
BD053EDC
BC833E0D
3D518767
BD11C859
3C48ED9A
3CF6160A
BC845DE3
3D790B2B
3D4DD89C
BD5FF0E3
3D1F4675
BD093589
BD0E72A0
3CCD8D4D
BCA3E252
BD0228A1
BD353DAB
BC19A198
BC0F9B15
3B936793
3C96D8CE
BD86D2CF
3D24D39A
3BEA1CA6
3CFF446C
3CE9A7ED
3C883EFB
BC1FD077
BD1E6AA8
3AEED42E
3D3E9644
3D082F1E
BC593918
BD9BFD82
BD61F32D
3D4346AB
3CCA27F2
BCBFB427
3CAC04C4
BD42501C
BC2444E6
3CE0A163
BC7D6DFA
BCCBFA02
3BA06212
BD803DB5
3D3F84B7
3D8EDC1C
3D192496
3C4BD32C
3D8867F9
3D161718
3CFBDB29
3D5C2176
3C0E234D
BCF22CF0
3C4AC2DD
3BC54484
3D7B9D5B
3D769002
3C99BBCA
BD83EEAA
3D3B5EE2
3C07F9EB
BC23591A
3CD34595
BB4D2945
BD2F4654
BCCBBDAA
3C64BA69
3C9E9E23
3D8E83E7
3D11E5BC
3D185CBD
BD96FCD6
BDA90A75
3CE4D66F
3C7889BB
BD2EDAF2
3C0207BC
BD21E059
3CA4546A
3DCCF18B
BCF1A66D
BD158FB9
BD932F6C
3CAB91DF
3D03EF81
BD91D0BD
BCBB972C
3D597252
BD21ACFA
BCF5F884
3D7AC915
BD09EDF6
BC2BD48D
3C89CC46
BCBF2E6F
3DC1DF14
BC87F3D6
BCBFF379
3DA695A5
BC857E49
3D67229E
BD435C83
BC0F8FBE
BD34790B
3D1CEA7C
3CE04AA6
3C607296
BCF5C0E7
3CE9D931
3D40E469
BB9A821B
BC9B19B2
BD48EF22
3CF759D4
BC1D6F09
BC8CCD9E
BD0A565D
3C27B845
BBE5A9B8
BD31E84E
BD376530
BCA62FE4
BCB58B85
3C8C4840
3D55590C
3CD63FDD
BBC0E193
3D228E88
3C7FDC76
3D8101F8
BB4D150E
BD833B59
BC9D654F
3D3320C1
3C03A057
BCDCDC83
3CD1D191
BB2EDB80
3CB70DE3
BD1606C7
BD8F8A9E
BD7A30EF
BB2D032F
BCA4FA5D
BC07B646
3AD6902B
BBAA55A3
BBC8A029
BB7137B6
3C0D7EB6
3BF4B0DD
BA41948C
3C848C0A
BAABEC31
3C882F36
3BD1ED98
BC2181EE
3C9337C8
BBC1327E
3AEAFA25
3C5C63A7
3B29EC20
3BEBEDCE
3C75BF1A
3BDD9180
3C03C7F0
BC5403F2
BC9CFCE9
BA718A54
BA964A4D
3CA00B80
BA3C9CB4
3B30940D
BBA9D8ED
BA203C60
3CBAB7F6
BBAC5390
BC4FBA43
BC99B6B8
BB7D33FB
3B86BC6C
3CFBB3D9
3D15CD91
3C8E63A5
BBCD7DCD
3B025998
3D6A5D25
3A92332A
3B151AEB
BC142E94
BB4076CE
BBA6427F
3BFADE33
BBE548D7
3CD0FE2C
3C88047A
3BB02D76
3C14F888
BBA0B919
BCB33A93
3C8F2936
BC0D97DA
BA7C5C54
BC265836
BC2D7706
BC4CECE9
3B0BD0AA
3C2EB882
3D5898F9
BC1E4E39
BC0882E7
3BAF13A7
3D0D105B
BBA06927
BCF9B7A9
3B3E8879
3C1F5681
3CC7BDBE
3CB87E24
3BCF336A
3CB5F5CF
B9029469
3A47D712
3C2B77F8
3C17865F
3CEDFE3E
BCB745C2
BCA818CE
BC92796D
BBD2E1B8
3C205BEF
3BB6E3A4
3BBED544
BBD61B35
3C52ECBF
BC95A5AB
BBA9B785
BB858A70
3D184332
BB80EA76
3B83E4AA
BC8C77D4
BD0FD6CC
BB2EF942
3CC72D23
BCA792F7
3BC634D5
BB913EAE
BD4E6866
BC61F9DA
3C3DD644
BBABBFDD
3B4B2C7C
BC575DD8
3B9FECCF
BD3AE4A1
BC0E66BC
3CB1D2EC
3D18C64B
3D5500A3
3D352282
3B47E960
BBAA6280
BBE3CCEC
3C1A32D8
3D86018E
3CDC4E7F
3D804AD6
3AAA8629
3BE3C210
BC430A21
3C29974E
BC8FA5EE
BD4C295A
BCA8D260
3C916562
3C3C5089
3C50825D
3C4EE2D2
BC436F7E
3C81E5D9
3DC57A05
3D44DEE9
BCD0C7F1
3C0BB2B2
BCA457C7
3CB0A457
BCC3D814
BB3B9CE8
3C14B8C5
BC1E30C2
3AB4299C
BD3704EC
BCDBF2EE
BC8CF099
BD022918
BB227DD6
3D68A7E0
3BCC77A2
3C861430
BBE332FD
3C55F202
BCD0C3A7
3BC9C6CA
BB7162F9
3BDF77AC
3B655190
3C053737
3BB4D560
3C1CF27B
3C104408
BC001228
3CE8AF04
BC9C1B16
BBACAAD8
3C160C0F
BC82D44A
3C489FD8
BC0D3A2E
BC0C90B4
3D1761BA
BBA89A72
B88264D2
3CA56EC1
BC56D301
3DA59B6C
BC9C5BA7
BDC9D492
BCAA1981
BC0CA643
BD12ED03
3D258D4A
3C016B49
BCB03D8C
3CFD02C0
3D258591
BD04497E
BD17F75E
3C03EE8E
BB266FF5
B8C9CB32
3C2EEEA2
BC8837DC
BA8D8078
BC3869CC
BD43050E
3BA8C066
BC943107
BD56CA88
BD4CD551
BB4F5562
BB93B999
BC716E2C
BD0F8910
BD07E872
BE1D78D7
3CAA73CE
3D0A47E2
3D93EE97
3D09BACE
3CFBC109
BCC489FF
BD24E630
3B97CB1F
BC6815DF
3DBC8AC2
3D17EE0D
3D56B094
3C11C33F
3C8243B2
3D5A81B3
3C94A688
3CB9A4AB
BD73282F
39F3480C
3B03C18D
3D026794
3C4607DC
3D050DAE
BD09DEF7
3C2FAFEC
3D91F946
3DCEC68A
BD190779
3BD1D507
BD001F57
3C6F44D0
BD2D2954
3CC4CFAF
3CFA9FD2
BCC06BE8
3D463D6D
BCA824AC
BCD748EB
BD33D994
BDAB8334
3C9E9B77
3DAB3B57
3CA569AD
3C53D2C6
BCABF6DC
3D4F9A55
BC01A99C
3DB03241
3D41DC89
BC28A8B2
BBC7A9B2
3C800C7A
BD242E97
BCB79086
BC8B8AAE
BBE64B14
BC872772
BC9113D7
3CE66C70
3BFCD121
3CDCC248
BC48FD5F
BD53F6FB
3D2E13E8
3D28FAF6
BC67A31C
BC5BC0BE
BBEB1406
BC056823
3D706740
BA16529A
BDA48ABB
3C20CBD9
3C99AA1E
BD12E59F
3BEAEE00
3BD2A9E8
BC69A614
3D3C8AEA
3DC31BD7
BD109FF3
BAF35309
BCB8A61E
3CDD7F57
3C896DA4
BC69F3FA
BD2BA6D9
BC28F929
BD1F5062
3D48951E
BCFEC9AC
BC1F79CF
BCA1484B
BC0EA571
3CD6F0CA
BD2D5914
3D6B6581
3C248ED7
3D86C137
3C01F0EC
BB0A6361
3C872732
BBAD21DE
3C8233FB
3D1AE324
3CC2BC81
3D20B062
3D5E6271
3B15D086
BCD76581
3CABD156
BB181B9A
BBC32EDD
BBBCF942
BC85BCCB
BC33D231
BCA3EF16
3C019432
BCAD384C
3D2D908F
BD2DD27F
BBDDAA43
BCAE4E3E
3AA5CE04
3C777F0B
BC780080
BBAF2867
3D87E558
3B913F75
3CC12B26
BC3FB141
3C30E549
3C84469A
3C84D4F5
3C6532F8
BBB973EA
BC90C1E5
BD104902
3DBC57DF
3D14CFAD
3B17B882
BD020B85
BCB99519
BCA35AAE
3CB45DCF
BD300B0C
BA85B5EF
BD7C8E73
BD5642BF
BD446476
BCE232C7
3CCFFD15
3D998411
BCD2F50D
3D33BA1A
3CA53EC4
BC8AC86C
3C62475A
BD2F1BBE
3CE0E0B7
3D194A0D
3C9C5CB8
BC4DE7A4
3BEEC759
3CA72933
BCF2A43E
BCCD4986
3D368AB0
3C454C35
BC9BDA39
BD6A32C1
3CC1103B
3CBB6A91
BCB62282
3B646D7D
3B3FE47C
3BC1FFD0
BD040EC3
3C959335
BCE4AA35
BC1C484A
BCBF15F1
3C41F127
3C001DCF
BBF0693C
3C8592D2
BBE0641A
3CEDBCC2
3C9DC6B0
3CAF1EC2
BB62A120
3CE323DA
BC1C45FD
3BF31B71
3B84F42C
B9C72CD9
BC415990
3BFCC0C2
BBE47E15
BC303864
3CD53E56
BCA39932
BBD13597
3BD59A9F
BB94A042
BC6D740A
3C02ED61
3B10C772
BC965E04
BB898118
BBD477D1
3CBEC68B
3CDA5681
3C1734B7
BCDECB9C
BC9E7B19
BCF00D47
3C931591
3C49220A
BCA52254
3BD88F7F
BB697709
3CC2F7E8
3C5115FF
BC2F7679
3C29546C
3C04D328
BC41BF6E
3C34E08D
BCEFFF14
BC45DDBA
3C8A6F49
BCBC2EFD
3BA1C47A
3CB41DFE
BB3C402C
BC525D4C
B9872028
BCC57A0F
3D0F834D
BC63D1DD
BC8654D2
3D0B4431
3C36CC9F
3C3B1432
3C113DF0
3BBAFD50
3BD7C761
3C63F0DD
3B9F2E72
3C67241E
BC38C59D
BC7E5F9F
3CA1563A
3BD82EDD
BC286F36
BCCA5700
3C120C4D
3C96109F
BB2EBD95
BBF79496
BC432852
3C10BC4D
BC90FA3A
3C2BB564
BC81ADF5
BC9347FA
BBA625C4
3C8639C0
3B4AF514
3BF6941F
3BB0DBA4
3C4F1BD0
3CD732A5
BCD39E09
BCC0E52A
BC0AE63F
3BCFB03F
BA4FC738
BBE36727
BB3ACDBE
3BC4EDDC
BCDA41E3
BBEF338E
BC87A066
BC86CB50
BB2C1FEF
BC83BF81
BD92DE07
BC402099
3B885369
BC5F80AC
3B8BD654
3CCF4E04
3C4FB4BE
BD55D36C
3D8B915F
BA94DFD0
3C97EA8F
3CF92FD7
BD8A11CF
BD141A8B
BCA5F4D5
BCBB677B
3CF45348
3CACA6A9
3C1223FF
BB09920D
3D721454
BD22A874
BCCC459B
BB8542C0
BD93C7A2
BD3CA48E
3C3C4506
3D4430D1
3AF4E37C
BC7D92A1
BD1A45A2
BC472A27
3BE73E0F
3D1CA75A
BC2F04AE
BD8B9BC8
BBB0F424
BBFC552E
3CB8F1C4
3D284F17
BC3A01B5
3DA0D4EA
3CCE4D9C
BD5F3047
3D1801FD
3D493882
BC8CFCDE
3D0F4CCA
3B860F8C
BC557CED
3D98C992
BB86F38C
3C044471
3CF3A917
BD8C4FEB
3C2A1DAA
BD4CBB19
3D15A6C2
BBA40BB8
3B89EDF5
BD32F506
3C83E438
BD29E3F9
3D1F4BB2
B88145FA
BD1454DE
BD185D57
3B1FA684
3D0E1142
BC9E7679
BD1D839E
BC80C0D5
BD160634
3D37CA54
BD2AFCFD
3D1ED763
BC8F79B4
3CFBEAA4
3D489A29
3CE1A183
BD7D2C1D
BA9D93B1
3D36A918
BB9CA3EE
3D2164FE
BD97FB23
BC931FA6
BC163576
3CC14670
3C432D26
BC81DC22
BD332173
BD05831B
3D5DCED8
3D14E8CE
3AAE86BC
3C0AF330
3D61869B
BCC1EF61
BAB42D9C
3C0DA48D
BC22816D
BA5FA8F5
3C7CB62B
BC5EAD48
3BAC59BE
3C8AF6E6
BB16AFA6
3D1DC92F
BD96BB04
3B9C9FE5
BD9A3510
3BBBC9A0
3D9B4CA5
3C8183E3
3C0C7DAB
3AF92A24
BD2EA5BE
BC1AEFD8
3D005F0D
3C94ED39
3D5A9F11
3D89619D
3D11D976
3D0A4474
BC30B9C9
3D983BD6
3C8018EB
3D81D974
3BC7CAD2
3D0D6CC8
3CDB9AB2
BAFF91E9
BD2BE3BE
3BD89DA9
3C767EBB
3CE1C4E1
3D51AE4E
3D09F788
BC70634B
3B957EE0
BD0AA7E0
3DDE9952
3D06BD4E
3CE5255D
BCA9EE24
BC54B331
BCD8D557
BD16CF72
3C36ACA9
3CA9DB07
BD9AC368
3D5F0D3A
BD0CC143
3D053506
BB4D7AAF
3D8F1491
BD0C3BB4
BBD3BF1D
3CF64FB5
3D1CF11C
BCA30571
BD4E44ED
3CBA6C3E
3D66201C
BBF8456A
BC2D5B7E
3C9F5190
BCA4E7E8
BD498D89
BD5095D4
3D604944
3D0D7E54
3B9D2108
3CC0437B
3D2A1B61
BD1D13AD
3CA57FC1
3D15E406
BD060283
3D47F92B
3C824F0F
BCE88724
BD0DF93A
BDA30AC6
3C549311
BC391324
3B77A3C0
3D385750
3C9080D9
BD09C6D6
3CB23F3C
3C059D28
BCCF3466
3D681675
3B3227FA
BB38FA10
BBF1FA66
BD165386
BCA6CDAC
3D4E61F6
3D61A3AB
BD0AEED2
BCAEACF7
BAC3B770
BBFB6131
BC2357D6
3D85909F
BD3872FB
BC2EF583
3BB7C8A8
BD3D0175
3D285FC6
3CCE31FC
BD112C37
BBAEDA28
BC2859D4
BBF62146
3C2F6BCA
BC428C1D
BD1D8BA0
3D1C085C
3CD6B9B8
3D893E8F
3D59286B
BBB5A2D2
BCEE25BB
BC043388
3D9D404A
3CDDA4D3
3CB21273
3D3B7B71
3C9BEAE2
BCDBB781
BD1BF4E1
BC6E2B1A
3CD13725
BC22D66A
3DA40841
3C1B3717
3C88F990
BD101A8A
3D98BDAF
3DABE37B
BC7F3D8B
BD907CD6
BB2B26F9
BD0A359F
BD8114FC
3D3A555E
3B561A2A
BDC047B3
3B1FFD4E
B9A1C184
3D230239
BCE8A3AB
3D56F4FF
BD62D6E3
BC8E6C4F
3D82B014
BD00BE86
BD395CA1
3C9D1E66
BD1DF70C
BB5ED83E
3D382039
3C9CAFF5
3ADA09D2
BB505DDA
3CB286C8
BD1B1399
3C7CD648
3C451843
BBA672BD
3D8FCA34
BD05A7F0
3D1F565F
BC816E3B
BC5C1949
BD56829C
3D45CD2F
3D180C03
BB04E574
BD9ECD98
BD366E2F
3D67BE4C
3D63F517
3D06D235
BCCD5154
BD030859
BC904C03
BC35363D
3D75089F
BBB29E62
3C5266EC
3C800148
BC1919C6
3D22DCD2
3CABA38B
BA87B027
BD7B7901
BD0CBB10
BCAFDD0E
BCB985E3
3B85E404
BCCC0ECE
BC87F680
3A4C9110
3D5B452A
BDA51F6C
3C41B635
BC88D1FB
BC1FD5E3
3D427056
3D1B9C4E
BD24CFEE
BB91A595
BCEB4125
BC165F35
3CD853B8
3C4EE6D7
3C9FE38F
3A35C271
BC860D36
BC597C47
3C421042
3DA1F174
3D22AECF
3CCFA2EC
BBFACEE3
3CCA5126
3CBE9A41
3C8B50E1
BC902AF6
3B95F757
390DF713
3C82E885
3CA77E2E
3BEECBE4
3C48AF4F
3B915C16
3C26C181
3C60A152
BC6CCC5E
3D9C2E7E
3D280F77
3AE5548B
3D04BA46
BD291BA9
BD00E6E0
3D0C25A6
BD093E37
3D12474D
BCEB58B7
BCA94742
BD771D02
BAC48B5A
BCFC4BAA
3D405011
BD195C88
3D6F1D17
BD226A47
BD443145
3D5E9E83
3D1FD517
BD890878
BD2709A8
3CC66144
3C6039C4
BCB18541
BC16D688
3CC44AFD
3D2E6913
3CDA0340
BC8B3EE3
3DCBEE75
3B89EA0C
BCB35B6F
3BA57141
3C49727A
3CAF72AE
BCEC4E4B
3B0B9014
3D21D86B
3C1140B8
BCEBEE06
BBC96691
BBB01327
3D30A2C8
3C472AE5
BD08488A
3D1BC6F7
BCCF71E5
3C8C7744
3C476E2C
3D2B0FDE
3C2FC347
BB32D458
3C582214
3D256224
BD752910
BD51E3FB
3C88D4C9
3CC15AA9
BC7220F5
BD13CD60
3BA566B9
BD691B27
3D45CD8B
BB249C3A
3D02335B
BD028F14
BC81CB80
BCAB50BB
3D1371CA
3C8A47CF
3D189A52
3B806AD9
BC1CA47B
B8F6BB7E
3C96DF72
3CB5E3BF
BD07A0BD
3C63778A
BCF5980F
3D2AD78F
3CFF97DE
3C8B4C44
BCB9651B
3CBDAEEF
BBA78C3C
B943FD38
3CBB7CEA
3B1866A0
3D5CF041
BC1D7169
BC8B5FFF
BD2844D3
3CD4D023
3CCB11C7
3C6C0B95
3CF75317
BB6AB965
BD89749F
3CF7DAE2
3D9A8934
3C77C91F
3D2BB8E6
3BA9E98C
BD5E5C46
3CF19BEA
3D5A3AEC
3C937D6A
3A01B435
BCA8DA24
3CDD8240
BD1FC293
3D070A0D
3D6424B4
BCC8CDC5
3D123543
3CDEC8D3
BD2147CA
3D3BCF45
3CB52EAB
BD4B630C
BB9B471D
BBF870A0
BD3FCECF
BCC5783F
3C888BF3
BD028CCA
3CBE2D35
3D05B559
BDAB6CEB
3D86EE5A
BD0B0571
3ABA052B
BBEC8AF2
3CEB8E4F
BC391E7D
BD82F992
3D208A43
3D95D055
3D133361
BCFC6A4D
BD698326
BD2724E8
3CAEA40F
BA437B55
BCE5D885
3D294C9D
BD732947
BB9FE09E
BC4E1DFD
BB8B711F
3AE05600
BD65C13B
BCA5AF08
3D54E5D5
3C456E56
BC15014C
3C459A46
3D7E96BC
3C0242CD
3BB67425
3CAD16F0
BC1D8161
3BFEDDB6
BB8EAAA9
BB5D8E92
BCCBF4A1
3C9A7F77
3BD2D8B9
BBF910A1
3C74F8E9
3C007B7D
BC03F657
3BBCED45
BCDD63AD
BC0D572A
3B682109
BCE03846
BC3E54D0
3CE2FF73
3CBAA5B6
BBCAA745
BD20C2F7
BC8E8668
B85516AE
3BEB6F74
BD4AD623
3CF707DF
BCAF7A28
3D2149C6
3D143AA9
BC49B808
BA6147F3
BCD285FF
BD09F5A0
3CDBDE50
BCFEAFD5
BC9900D6
BC0B8801
BC0BB233
3CC9AB87
3D415509
B984C226
BD761F0D
BCA89278
3AFBF8B3
3D916536
BC8088C3
BD07130E
3D0B5CD3
BB8C86F5
3C7A2277
BAEC009C
3B83F17F
BBCC8471
3D4E5D5B
3CE38966
BC80ACB8
3B947C16
BD4D785C
3C11D183
3CF778B4
BCBCD272
BC338EA5
BC0EE649
BC89C00C
BB89C468
BCDA4B23
BC82798F
BD3040B6
3B252B02
BBA91C48
BB4E3648
BC824A67
3C98343D
3C8CD287
3BADE7A0
BC0A8E02
3D0A2C8A
3D064165
3CBE8370
BD259D0D
BD177B12
3B16FF52
3C361638
BC2B30DA
3C78A441
BCA5C99D
3B20AADB
BBCC237D
BD1C1AC3
BD4E1201
BD127C4F
BCC53692
3C2DE48D
BD4B25DE
BC59730D
BAB61180
3B680FB9
BC19E139
BD434C83
BC1D526F
BD5E430A
3D245E95
BC67B140
3C820064
BD956547
3BD2FC44
3B988B83
3D378957
3CCA010D
3CD72F7C
3BC748CE
BB031612
BCA81243
BC715BEA
3BB2C44F
BBBF6570
3CF26E19
BC761A0F
3C895A7B
BC3C1B53
BCA4B9EC
BD1DA8D2
BC6029F4
BBE6D9B2
BCE5A743
3C4C183C
3C81D9C0
3CB3EA49
BBA8BD93
BB582C38
3C8594DC
BCC3AA61
BBB785A6
3C0E124F
3C0CB325
BD496241
BD68989B
3CE8D61C
3D8688B0
3BBA2B8E
3D68D913
3B5C7B13
BD33DA2F
3D700CAF
3D42C193
BC1EC00F
3D0576EF
BC009917
BC9ECAC7
BCFB420F
3BCB2EA9
3BC071C4
3D2F8D33
3CA9BC64
BC615608
BB0CB87E
3CCD311C
BD588A0B
BD2C4CD2
3D00E8A1
BC1C2EBF
BCCA0A1C
3B2CD003
3CAEA271
BC347E5A
3B879037
BCA0897A
BD7815A6
3D176DDB
BC624F8B
BCC7029D
BD2C18F6
3D1B9B49
BCE6AA35
BD3B4F3E
BB9CE4EA
3CF71C83
3D4967E6
BBFF3D70
BD0878F0
3BD00086
3A54C187
BCC682C0
3C94087A
3CEA86BF
BD419F36
3CF4D28C
BC3FD678
3C8A83D3
BC902EE0
BD298916
3D9529F9
BC8B1D85
BCFF919B
3C340B00
BCD00BEE
BCCDEAA4
3CDDDAEE
BC9F141D
BD263E12
3CDD3001
3B3902D0
3BE98AE8
3C0E22C0
3C2E2479
BAC22A57
BD137C80
BD13A153
BD889736
BD07391B
BB940996
3C37B8B4
3CD20541
BA2F7108
BD2BC1E4
BCEE467B
BD2E7BA6
BCB76F91
3BB79E1C
BC756CB7
3CC6CEB6
BD5267B6
3D5D10A8
3C9E8DBD
3CD224CE
BBCBCDE1
BC3EF11E
BD0646D0
BC860AE6
BC2B54A9
BD70F7E8
BC31F217
3D146C30
BC56C33D
3D03B1EA
BD3975ED
BAF644FB
3CFCBF2A
BC6C3000
BCD35DB1
BC7B63C6
3DA4FCF9
3B88DAC2
BB4B0376
BB81F772
BB6BAF61
3C878BA5
BD09F934
3C17E7EF
BD00E7D4
BC11CA16
3C8CA332
BD922F78
BB68052F
BC87E624
3C62C22C
3B55C90B
3D4F88A6
BC719227
BD4FAE52
3B81571D
3CB696A2
3C8B5AF1
3D2F03EF
BCA7FC80
3CC99E85
3CF8D8F7
BBF7C9C4
3C9B65F7
BC27140F
BCAC5784
BCA9996E
BB549809
B9BD8B2F
BDBC745D
3D52BCB7
3D8CE6A0
3A9DAD88
BC7CB0B7
3D440D32
BC5FA9DD
BA149FC2
3CC3DD26
3D052AFF
BD035076
3CB91D9C
3D6717EC
BD6263D2
3CCD081E
3CD6531C
BC2C020F
3BFFDD11
BC6B1BFA
3CF8B109
3CD05A4A
BBDA84B3
BA6B53B0
3CDB0BF4
3D225F6F
BC7A59B6
3D673945
BCA3FD5B
3BB73213
BCE1CBF4
3C143DE8
3BC9F8EC
3C8EC2C6
BD101399
BCC4642C
BD71C959
BCA4F79B
BBA876EA
3C303426
BB1D4156
BD3E7379
BC35D50F
3C02E509
3C893851
BCE0854C
BC4AA96C
3B95C5B6
BBDC53A3
3C4A6698
3C1C682B
3BDF3E04
3C88F2ED
BCE41A6E
BC9A595D
BD12DCD9
3B249AFE
BD67608E
BCAB69CD
BC8B010E
BC2D66A0
BBF164FD
3C99AFFE
3D74AC3D
BC5492C0
BD5085BD
BCB95485
BD3AA725
3D0BBAD6
3D23A25D
BCA8EA5B
BD473396
3CBF2B81
BD32FE49
3BE7FF12
3CD30C19
3D5B2482
BD400E2C
BC0E9C46
3B44F7F0
BC5B8AA4
BBBAA232
BB7A0845
BCCF96F1
BD570160
3CDFE2FA
BCD64D55
BB807FA4
BA9B0D93
3C123D63
BB91502B
BC3E2D22
3C31E63A
3BE2F7B7
3D8AFDA7
BC65911D
BD20C665
3CAB1BDB
3D0C70C6
BD0C2BB0
3CFA5971
BD38EE51
3BE43356
BD3D2205
BD50FFC6
3CAC29AA
3D11342F
3CA6160D
BBACB6DD
3D10A594
BD0A82C5
BCC95213
3D378DC7
BC75921D
BC6C4E05
39E7071A
3B8A06CF
3D8E9579
BCBFA1DA
3C1A339A
BD69C09C
3D6DA38F
BCC16C15
3C18DB82
BD1CAAE9
396ABC7F
3CFF46E3
BDAF927D
3DA472FF
3C991E4A
3D8B333E
3D6EE2A3
BC89B358
3CD75A15
3CB1EE51
3CBB774D
3D074B0E
3C6116BE
3D803962
3DAC39EF
3C9B2B17
BD921CBD
3D9F8178
BD743419
BC86F35C
3C95D666
BD38152F
BD1E2BED
BDAA336C
3C5F9FA3
BCCCC6DB
3D2237C4
BD72AE7F
BD159FA6
BC7FA9C6
3D2616CC
3CC9262A
3D2833BC
BCEBE817
3DADDE76
3CC86E41
3CC6AE28
BBD462AD
BB86EAB6
3CC497E5
3C86D6CD
3D0C507E
3AC629E0
BC3C9EBA
BC9E2B13
3DD5268F
3DCD43A0
BD0185B5
BDA5FBA2
BC88AD50
BD3C29B7
3C8781D8
BD846C03
BCC822C9
BDAD9BD9
BD1B94E1
BD66F8C2
BD05CFBD
3D3F94D1
3BECC2F7
BD32934B
3D042D65
3CF1AE7F
3CBDF9A8
BB7B332A
BD8583BC
3D560142
3CA9DA83
3D41F58A
BC9BA65D
3C12191B
3BB1FE1B
BD2EC052
BA057225
3D9911E8
3C02BBF0
3C3F0C00
BD6C5D30
3AEF80E8
3CFCFF15
BD17FB66
BCC470A4
3CAA390F
3CE49558
BD4E5EBC
BC854F7C
BB82477B
BCFF692D
BD2F491B
3D509529
BB95CFCB
BC131628
BD8010E2
BCA9871C
3D142C19
BC26D405
BB5126F7
BC1D8E31
3D1FC03C
3CC352C6
BC18FAD7
3C6101F2
BD4BB87F
3C22FA2C
3CF0A138
3CEDACA6
3D93EA06
3C98CAFC
BD40C869
BBF6D203
3BA7E410
3C9E190A
3D298870
3CAEF18F
BC01B0C5
BCF64D3F
BD6E650B
BD865806
BD09FC77
BB4269C5
3D679F46
BCF11785
BD32D050
BE018B37
3D649508
BAFDA7C8
BCDB8F77
BBFDAC75
3B32E053
3BB08890
3DB1DCA0
BCE9ABAA
BD67C54B
BDB51DD6
3D15A0BB
3C2F2833
3B769A65
BD3B3946
BCFDDC8F
BB35EEEC
3D1A3080
3D5F766A
3D088A19
3CA25380
BD1E48B4
3D2AEB32
3E0BDEC7
BD0DF4E5
BCC6A63E
3C3E4244
BC5EE58B
BC895CBE
3CF78750
3B90F82B
BD9C5111
3C8B793E
3BC3CD24
3D1DD6FE
BC0F40F0
3D9433C9
BC19C202
3C47404D
BB906EBD
3BF6865E
3D25E87D
3B9644A7
BD0EA284
BC45DEC8
3C7A77F7
BCFA723C
3C29E2B7
BC4A726D
BD150607
BD99E1AE
3D864CD3
BB0EC618
BD88CCEA
3BE12ED2
3D903EC9
3DB0E65C
3BC284A8
BBF4BC69
BD477E4E
BD0D5A67
BB24C4D1
BBA8BACE
BD19DE17
BCC68DA8
3B48D892
BCEFAED0
BCE82BBA
BD49B0AC
BDD7A8AC
3D1E8212
3C0F2453
BCC07A41
BCC65947
3C37C568
3BE19D55
3CDD8A43
3BCF3560
BC868E00
3D314C42
BB9AD9BA
BD8FE99F
BD00379D
3CAFCC50
BBB578A2
3D0B46EB
BA99F4C9
B9B97217
BD09D481
BD42008D
BCAF5B5F
BCAD3F1F
3C8DAEB9
3C9024D6
3B47AE91
3C36C093
3C0E6F70
BC625C42
3D9925B4
3D05665F
3D05455F
3D35D52E
3D1C2C9A
BC3761F4
3CCD7B47
BCEEC11D
3C953966
BB8D9EB5
3B0F74F4
BD4F9847
3CCD2654
BC260937
BB8F2E98
BC1624C7
3D8A9990
3C34DF4E
3D50A4F5
BC0F09D4
BC6476BE
3B948C7C
3C7156DE
3BEFB70F
BD360EE3
BD3FE338
3D4951E2
BAD52508
BB5968A4
BC144AEC
3CF7D3F1
BC8CD1DB
3D28FFEF
3AF2B83B
3D7B3FC6
3B95A7D3
BD4E8070
3CF0DC52
3C752C24
BCE4B308
BC1491CE
3B5AC245
BBF7E263
BD2F1D5E
BB39860F
3C63EDBA
3C976E8F
BC573DD5
BAC25F77
3D835C8B
BCC84C57
3CD042BB
3D2CD752
BD0AEADC
3D0A909A
BCF2DFAF
3BC76188
3D065860
BCE6A29E
BBE78998
3A9B92F9
BBC943FA
3D3D43AE
3CDE74F9
BD4C00B0
3CC3DBF2
3C05D6F2
3B4D566C
3CBF975E
3C3F0BD6
3AB5AA19
3C4AEEB6
3CC8D386
BD650A3B
BB7A567E
BD7867E6
BB84C27A
BD866FF7
BCE4566A
BD4343B6
BD0AB93F
3C986BE4
BCC6F258
3CCBB045
BCBFD79E
BD8B3E42
BC355230
BCCBBCE9
3D4296EA
BD15C9FE
3C5CF04F
3C986B3B
BD0D1885
3CB491DB
BC2F658B
3D47CBD3
BD2FA270
3CAC8E14
BCED023A
3BC37418
BD0C903F
3D42EF40
3D1A3881
BC98B20D
BCB57405
3D13DCA9
3BBB09F0
3D28AE1D
BCDE0B8F
BD407C29
3A999374
3C9ED302
3D508116
3ACB8BD8
BCD4EB06
3BF40F15
BCE4E84A
BD0AFFDC
3C2C6A02
3BFC40DA
BD7C3CC4
3CDE8390
3D01AB73
BCC510FA
BCFF9249
3B27B048
BCD868CD
3D9C4D4A
BCD2BBB1
BC7DC444
BD23B1AD
3CE5CD31
3BABECF7
3CCD6CBE
BC880819
BCBEA3CD
3D4B2517
BC7BCB7E
3DA8E283
BB5D992B
BD33BC87
3BD90439
3D1E024E
3CD3C001
3D83F88A
BCED94C4
3D18A60F
3C06F895
3B069278
3C57CF75
3D81F072
BC5D3AAF
BC581E00
BC103AB1
BD41C063
3CF1B6BB
3D025C3A
BCE76219
3BAB723F
BB54869D
3CD7E2FB
3D22BE68
BCF2318A
BC59107B
3D7A355D
3D6955B1
BBCB822C
3CD4BA33
BDC2EC9A
3D2C2A20
3D6F7468
BCB3E4EE
BD822947
3CBF7A53
3DA4CCE6
3D067F7E
BCC0EC90
3B52A1C0
3C454EF2
BD0403E4
3CAC2805
3C563B8B
BD85B8FF
BC213DB0
BC8382E3
BD377383
3D990BC8
3D278423
3CDB4323
BB117AE0
3C1F0119
3A9B9350
3CF38B03
3CA4D834
BD846645
3D231357
3D828E68
3C40BCC0
3DA0B702
3D3F5AAC
3D2322BB
BD95B184
BC78378B
3C7344A3
3CA7E948
3CFF65CF
3C45DF0B
BD25851A
399A37B2
3D805E23
3B4AF948
3D33AB63
3D6CA2C9
BA0E859D
3CFEE162
BDAAE308
3D2C4861
3D4385D4
BC1770A5
BD24BD9B
3D30CA06
B915E0A8
BD1D1D4B
3D387B59
BD4B0B73
3B4AF50D
3CF1F478
BD4DE503
3DAFA22F
BCA9706F
3DB47F2B
BCA66B56
3CAE81D1
3D3A8F0F
3D1AAD28
BD199468
3D582036
BD4E7E55
3D10C74B
3D619E03
BC4FB847
BB173252
BC59EB2F
3CE7025B
BCC8C96C
3D0316C8
B9EFDF68
3C8946FF
3D5C3243
BCDDF6FE
BD09B9A4
BD397BAF
BD5D2CE4
BCF9684F
3D93993E
3D4AAE4B
BD9E0752
3C8E2037
BCA4A5D6
3D9A4E0B
3C46E6DD
3C71358C
BD404E23
BCFA0E88
3D2D0410
3C0D51E9
3D1B2E5F
BD8F1756
3CD7256C
3AA4D569
BCF53797
BCAC081A
BB346D43
3CBE3FE8
3D4B799F
BD14B858
3D05F0CC
3C60E537
BC604758
3CD17FB7
BCB85249
3C604530
BCFFF456
3CE6271A
BD4DB679
3C209647
BCEDDEE7
BD0EEE02
BD1F223B
BC542D80
BCD01BEA
3C3DC278
BCE30BE0
BD7EEE3F
3CF5054E
3B6294FC
3C98962D
3C77D9C9
BD06AA75
BCCE7BC2
BD43CD79
3C6AAC37
3D1172E6
BD04A610
39AE2614
BD2B8B9D
3D166510
3D0AF2D0
3D0B50E7
BCD0619D
BCB36B04
3D21B26D
3D81E2AF
BD9390A6
3C806E5B
3C9638CE
BD8C4E2A
BBB1388E
BD0C894C
3C2793C8
BB57C87A
BCD83E2F
3C334180
3B0BE191
BD1DE8BA
BCF9982A
BD00D21F
3CA0824C
BC8DFB62
3DBFB9CA
BD738597
3BE1AC7F
37C8D34C
3D82C083
3C2D57F9
3D92F144
BC1E83E0
BC32BE8B
BDCBE302
3CE8C9B4
BCDAB134
BD01522B
B8BF971B
BC1E0651
3D41EDD2
BD07F8BE
BD486C2C
BD63EC18
BC08D0F4
BD128F92
3C053795
3D50E096
3D5E58E2
BD1D295F
BD501854
3D74EEE2
BC9FBF7F
BC8C58DA
3C03F98E
BC809D34
BC3F30F9
BBE9B637
3BFAA54C
3C9643CE
BCB24608
3A3D497A
BB240061
3B61F541
BD4792D5
BCCFAEC7
BC5AD6FF
3D0942C7
3C23A6D1
BB9995AC
3CF90CD9
3D7615EA
BD13451C
BBB4282A
3CD7F535
BC14FFA8
3B403C5E
3D1BC882
BCCE6F93
BB2909D0
3CB5251A
3D6D8F7B
3D31403F
3D27A4F8
BCEDF013
BC0B3627
BCCA8AD3
BCC583F2
3CABB4A3
3D6E87A8
BCFCC570
BD3466F8
3D9EE360
BCAE3CD0
3D7AB918
3C4596D7
3C45CD99
BCBF3E76
3D3E1CA3
3CE91D65
3D02ABE5
3CCD3EC7
BCDB781D
BD3EA070
BCE3CC0A
3D1D7062
3C5FD6F7
BD40BC22
BD546DC7
3D346A99
BBE1433E
BD3B34BD
3D4A2ABE
3D850272
3BFDE314
BD822645
BB91110A
BCF6ECB8
3CABE2E7
3D03449A
3C662F81
3CA2A3A6
3D26C12F
BD87993A
3D64CCBD
BD81A2C5
3DB903E9
BD385F86
BB884906
3CC55B3E
3C84F4B0
BD1E0FCE
3B7BB8EE
BC9B6865
3C2763C2
3CD539AE
3C9211A0
3CC995A7
3D36C333
39F32C3A
BC4CF0ED
3CD94563
3D1614A7
3C7B9BCD
3D80C5DC
BBAF0B86
BD4A446F
BCB965AA
BC58F4EB
BCC4C1B7
3DB10E5B
3C9BD58A
BD74C6BF
3C116628
BD3CAD9D
3D5CBDD8
3D12EDDD
3C844AE6
BB6E9FB3
3C528AD7
BD15D861
BD2B259E
3D3D815F
3C4882D9
3D55CF97
3BA2F501
BC8672D3
BCDF9449
3CF10F00
3BDD14F2
3A7D5FC9
BD5C74C9
3B2489C8
BBDC3B20
BAB6C440
BCD01127
BC8A057E
BAE9F0D2
BCB5A80B
3AD42D8F
BD17DDA2
BB8526F9
BB9830FF
BD2D3A7B
3CFCEFF0
BD80962C
BC356D48
3C84C4D3
BCA87B5F
BD18B323
BC32028C
3C258A30
BD66786A
3BBD43CB
BCE4A94B
3CB4F4DD
BC8175D1
3CBABF25
BB7587C4
BC3B122E
BC25142F
BC0E3BB9
3C905B90
3CF0DF2C
BBBC3CD9
BC330557
BC4539CD
3C08F903
BC7809BF
BD2FFD08
B973827F
3C44534F
BD29ABB6
BD1CF76F
3B3BAC22
3CC06C24
3A641FF2
3CFDA00D
3D1E7FCC
BCAEAEF5
BCE05E1E
BC064AB9
BCB237D0
3D464431
BC6F879E
3CDF0B12
BD683610
3CFC521C
3C10E2D1
3C904DD3
3CBC7C9F
3CD201C1
3D006C18
BC05E917
BC8676C0
BBA9A22C
BC4E3F1E
BC555DC6
3C623135
3C93679A
3D78D4AF
BD0FD2BA
BCE5468A
BC90EC18
BC7978EA
3B30CF23
3CBD9C36
3B3C4904
BCA158C1
3B8AB587
BD2FE07A
3C7BE69A
3D517515
3C1FE9A2
3D1B91D9
BB638B4F
3B027D0A
BAF77C74
BCCD78D5
3CA415CD
3D0CE152
3D09959A
BC825D7E
3D169601
BD60E5F6
3A4756C0
3C5AB97C
BCAD4112
3CDDF2FF
BC5790D3
BD0FEC34
BCC0E59C
BCC77A0C
BCDB1259
3C153F91
BCB0A26A
BD2C6717
3CB26958
3C84C9DB
BD421ECF
BBCBA0A9
BD261DBD
3A352C64
BC6072FE
3CACF1AF
BD36C1D0
BC4FA3F2
BD1C631F
BB019093
3CAFD8F0
BBDA9836
3C9BE433
BD615BDB
BD182464
BBD986B2
3C9FD23E
3C4CD5D3
3CCF65B8
BBAD32DC
3C3AF264
3CF05640
3C045AB0
3B962E56
BCA2E69F
BCC15858
3C82690A
BADCD99D
BD45FA84
BC1709CF
BC3ACD49
BBD74941
3C6B324A
BC3F992D
BC87D8FE
3D44A3E0
3C6E9E86
BC38C904
3CA60670
3CE11C1C
3B47E8E2
3C34556B
3C328444
3D27E2D7
3D0533E0
BC4DE006
BD2372B3
3C9CBF85
3D286F70
3D0AEFD1
BC676CF6
3D1582D3
BCDF6E84
BC32107C
3CD03D9C
BA3766FA
BD2CCFC7
BD2C3466
3C2E2B8C
3D02B406
3C14CCE0
3CB50F73
BCA2910B
3C96557B
3C9CC2CA
3CC7E99E
3D8EDB10
BD309F06
BC769CC9
BC4470D2
BC9C7B6D
3CA1AABB
BD6D6FF9
3D0A59C6
3D87944B
3C8D3495
BC24B9F8
3D1D3CD1
3C111251
3C35B238
3C1D3A6A
3CB9C7CA
3D0C9D82
3BE218A5
3CD81C8D
BC06DFE1
3D17DDC5
3C82528C
BCD1221F
3AF34710
3B9538AE
3C6FF5F5
BCA0DD10
3D025F6F
3A00DB8E
BCE00D0B
BC39086D
3C420EA9
BBA8AD9C
BC9D492C
3CB0D1C8
BD26A75E
BCB36D29
3BEA7842
3CB7F7D7
3C97F5AD
3B128D1F
3A2C6151
BBD8DCB8
BCBD958A
BC945FD0
B80912A0
3D4A6BF2
3D03AD28
3D95357D
3C569CDE
BC57F565
3C2BD760
BB069254
3D6554CA
BD6DFDC1
BC8EDC02
BB6C9247
3C88AB24
3C20B093
3D1A0BFC
BCB7E472
3B415F2F
3D7FD612
3D4A7640
BD435707
3C958056
BCB4702D
3BE37722
BD03ADF3
BB995A42
3BC4D6F1
BBC76F3B
3C381816
BD6886E8
BC8B6F87
BD2A60CA
BD176927
3C97B3D8
3D5CF7D7
3CB5BDC5
3B17F225
BB3E8242
3D1A9D5F
BCE53E07
3DA19B80
3C76A565
3C31C4FA
BC92CA1C
BA2EFAE8
BDC759F4
3C0FF54A
3CE93989
BC772C1C
BD3DF958
BCF1CBC0
3C2F14C4
3B62DC8D
BBA8077D
BD002C4E
BD152390
BC63BE61
3C11F338
3CAD6661
3CB0240F
BC39A2B0
BBE2128A
3D1EC595
BB1CB4A9
BDC0A927
BC886CFB
3CA2F9C6
BD33D53C
3C7A0A27
3BA248FC
BC9C6B9C
3D2C5213
3D306678
BC82EE01
BD0A2BA6
BCDA22A7
3A8C6BC0
3BDDBD62
3D0A7DB6
3B6771D9
3D61A049
375FCBE0
BDA7A211
3C5E20D9
3D3E683E
3D04B0F7
BBEE50C4
3B8F6717
3C5A9464
BC713CB6
BDACB976
BD54E640
BC83A2F6
3CC19075
BAF8C1B4
3D1DDCD3
3BD8215F
372C41F8
BD2710E3
BD1FA103
BCF13A73
BC808468
3D5357B2
BD89AC15
3B347D60
3CCD7A36
3D67F103
3D39948B
BA878487
3C87BE8F
3D40658B
3CEDB7F3
BD8845C6
3D766B70
BD0A9F56
3D3BCD61
3D601A61
BC7FCE41
BCFAEAA0
3D4C7A03
BD9191EE
3CC52DB7
BD48B3E0
BC6D8912
BC97D728
3CF4F943
3C9F3E3D
3D3672EE
3C917D67
BC5DDADF
BB44BF06
BD8113DB
3C8CDCFB
3D3A638F
3CAC925D
3D2B6177
3C2C7963
3C8BDCE9
BC1F1B78
3D510064
BCA301CB
3E01258A
3D3F2BE4
BCF256F4
3C80D5D9
BC2129E2
BC8D5146
BBE9F863
BC370FC4
BA8E3033
BCEE572C
3D48FD04
BC418E6F
BD09F765
BCC42688
3A95F792
3DABFDF7
BCEE88D8
3CBC7F00
BC52E1E7
BCD2B413
3D016A3E
BD3919A8
3CA181D3
3CE7A9B8
3C82ECBC
3CCCCEC7
BC966570
BD2114F1
3C3DF473
3D27756F
BD58415C
3D840EC9
BC8B12A0
3C08DC96
BD34C346
BC4D7457
BD025B6D
BD9BE976
BC9C5671
3D3E56D5
BBA70E42
BD050267
3D60C5E7
3D4D7B34
3D58BA35
3D68F147
3C06513F
BD0D090D
3A2149F4
3D0F8635
BD019381
3D913131
BD2F18B2
BD513DAC
BD079BB0
BD217D8E
BC48C7FE
3CEC5F44
BCF18208
BD899673
3D493096
BD32B3C8
BD85D44E
3B8769EF
BD0D8754
BB24E083
3B5293B2
BB47EA0E
3C855353
3D226FF5
3D0AA00C
BD4C546D
3D28C9A1
3C28D0C2
3D30C768
3C2DA8D6
BCE992DB
BD6E3AAE
BC99DD96
3C0128A8
3C9DF4E4
3C931716
BD7126C6
BD319EE1
BC60350D
3C3318AB
3D3AC4AE
3B05C985
BCDF741E
3B43326B
BCE954FE
3D26DE6E
3CBBAF4B
BCDB52F9
BD248090
3D9E2137
BC6B6ADA
3D5B4F80
BD12F131
BC588DBC
3D002FBB
3DB02E08
BCBB849A
3C13883D
BD2BFEBA
3C6D1B55
BC8C8E35
BCE56C97
BD614A3A
BD41EADB
3CB7F9D4
BD070550
BD9E9C35
BD3D3F8F
3AD2FCB7
BCBE34E8
BC857B33
3D7547AC
3D92AE47
3C092985
BD4E876C
3CCAF857
BCE2060E
BC0ADA66
3D175453
BD0E9C25
BD3CBF0A
BCD40B3D
3D24C289
3D316877
3BB2BC43
BD12FC7C
BCCA3360
BCD37089
3D08206C
BD651EFE
BCEE12AF
BBF93C6B
3CCB712E
BCED928D
3D86D480
BC814871
3B17FB0C
BCC5DE74
BCAEBFDB
BBF75E3A
BCC1B101
3C5CF386
BD8B5AC8
3D4C57EB
BCD33844
BD65253D
3CDEEE03
BD5B5A2D
3C40DC48
3D597D77
3CFBC06D
3D0EEC79
BC9729E6
BC9F9D00
BD0FC9A9
BD05421D
BD50343D
3D3862FE
3C5D0661
BBBDF397
BD494EF5
BAF0BF0E
BCA4C968
BDAB65D4
BD05C634
3BC0D88E
3AC0BB30
3D168C12
BCE2DFF8
BD1B1C1B
3BBF085A
3DAD938E
3D9F8D38
BC609FEE
BC055542
BCB44557
BC00613F
382CAC1C
BD3C563A
BCC7D3C3
BC840AFC
3C4E46A0
3B8D7488
3C6848D5
BD106143
BB84DD5C
BD5206EC
3D382864
3C3CD5B1
3CE9E361
BC93E260
3D3DA9F4
BD1EA7B9
3C8735DE
BC9346D6
3B90EE88
3D82F9D7
BD7F435D
BDA17ED8
3D3CD500
3D2277F7
BCB54F72
3C1BD3EB
3D836A1F
3D4F1884
BD35AA36
BCCD4165
BD826793
3CB114A8
BD305BCE
3D501927
BCFD968D
BD620E96
BC86AD2B
BCE1FD91
3D275B6B
BCA074BE
BDD1D564
BC43FFC3
3CDF73ED
3D36D016
3D6A81B6
BD73474A
BCE0C50A
3CFE05FB
BCC6DDFB
3CC03ACA
BCA0E84A
BD747C9A
BB177CE8
3C9C1B36
3A4F3A10
3B088E52
3C86678F
BD4FA29F
BA8D49E0
BB1E256D
3CDB977C
3D31CB14
BB019EA5
BC52FEB0
BD26D322
3D469C4E
BD4C97DF
3D0ED8B4
3BF5E35F
BD10697B
BC23CC5E
BC2F149C
BD18EEC1
BCD88404
BCDC9824
3CE0E6B2
3D36E8E8
3D1400AD
3BA9F405
BCA2684F
BD858A66
BCD663A4
3C99496B
3D27C40D
3CB4CE8C
BCC7BDD0
3D1CBDBA
3D549ED0
BB28378F
BB40815E
BCE52EB2
3C5E2A5F
BD007B2F
3BF00883
BD65F14F
BB7BF5FE
3D2DD379
B9E79DF1
3CC28024
BD3F115F
BCFDC356
3CC06945
3CE3512B
3B92A252
BC942A39
3CC59D22
3C0F0876
3CACCDE3
3D766C2A
3CD32572
BD562F7C
BCE99D5C
BC85A70D
BB076D35
BD534EC7
3D6B40B5
BD434291
3C42BBCC
BB0B0B60
BD67BE9E
3D5F196C
3DB4B82A
BD3B5F16
BC9932E9
3CE3E4DE
BC8476A3
BD27877C
BC6811F5
BB705E22
3CC6DC33
3CAFC927
BD20F828
3D1B44E0
3B23F3C8
3C4B3824
3CA0D9D8
3CBE3CD1
3C2789CA
BDA09AF6
3D2FF8AE
3DAB19DB
BCA07109
BD30410A
BCCFA6DB
BD126BCA
3D3F4878
3CC1757C
BCCFF012
BB179E44
BD13F7C8
3CA769A7
3A02E07F
3B8DB930
3C57C8C7
BC7C7598
BBFA3927
BCB98C31
BCE8CAE9
BB825C22
BCEDF56A
BBCEFCFA
3D814415
BBD3677E
BD27DE9A
BC8BC43E
3CF4B5D6
BD491AE8
3D887772
3DCCF96B
3B889E4C
3B827538
3C07AEE5
BD7264B0
3C35F793
3B7495BD
3D1AF7F1
3DAE12F3
BB0ACC72
BDC8F4DC
3BFACCBC
BDB2468A
3C25581B
3D43EA33
BC144C22
BC788EA0
BD8BC613
3CD2DE79
3D1C6789
3D840A24
BD1968CF
BD67C334
BD323956
3D8FDD35
3BBC9F88
BD238C80
BDFF1906
3D4C40F1
BCBDB4F2
3B690336
3C702F98
BC1E9D0E
3D3D5AE6
BB08C336
BC324E9F
B9BAB8B0
3D2644BD
3C0C646B
3DA6490C
3DF33DF2
3CA03D21
BD666DCF
3C22FCA8
BDE70BA3
3D756B85
3C257471
3D4A7A07
BDD03C76
3B17A4CE
BD49754C
3C2A7B41
3C93529D
3E55F6C7
BCFAFFA3
BCBD594A
3D2966D6
3D35133A
3C2282EA
BB81EEF7
3CDA63E9
3D3B1D0B
3DE33396
3D3A7E42
3D32E9F9
BDD76F56
BCD2D588
BC98906E
3CB9A2EB
3DA2CEC9
BDB845BD
37318186
3DF04C77
BD06275D
BC235B5C
3CF0710F
BC92F23F
3B5D0DE0
3C9191C0
BCB5783A
BC05CC91
B8154660
3D381146
3D46618D
3CC6C3E8
3CBF75F8
BDFB36A5
BD445778
BC8E3E7C
3D75DD25
3C8FDF89
3C8A4238
39CA0084
BC985553
3BF31D59
3C81E67B
3C65BAE1
BD84853F
3D38946C
BBD486AB
3CCE4F1B
3CF0333C
3CFCB2F7
BD167F83
3D64DB84
3C85EC91
3C991B2B
3C0604C1
BCC3C62A
BCC7F3F8
3C4B49EC
3CD55960
BBB1F59E
3D18A27D
BB0A2B52
BCF7ADE5
BCF23E61
3D8A1E11
BD737547
BD23E11F
BC60B31B
BAE52A22
39B3F01F
BC9481D2
BCDC9CE3
3B81C046
BABB3D9F
BD0B0642
3BA5F2D7
BB913BBB
BCC71522
BD3AE5C0
3D4ABF6A
BD704193
BD3DA7BB
3BE6E12E
BD1AACD9
BC98E7FE
3CDAA7ED
BD03A2AB
BD5951B8
BC952F47
3C35E47D
3CE80A95
3D0505E3
BB46586B
BC9C51A9
BDB95FCD
3CEF9190
BCD948E2
3C40D83E
3D6E6B6D
BD832B31
BCABE150
3D87B946
BB8B78C3
BC97C3FD
3D352FB9
3CC5FF49
3A9A544F
3CB3FE9B
BD053DDC
397E58E4
3D746A4A
BD932319
3C9FCE97
BB6878B0
3BD39A25
BCA89725
3ACB9123
3DB123B5
3CCF0F66
BD0CC593
3B344066
3D39EE8D
3CEA0B43
3CC93306
BD210F80
BBB1D211
BB899D4E
BCE098AF
3D33D6FA
BD45BED0
BC401917
BC65C097
B9995B30
3D0EFD93
BD6CE36E
3CFD81E5
3BADD3BE
BC1661E7
3D0F162B
3D384999
BCFC3984
BC1A8F24
3D7C9FF4
BD64258A
3CC45546
3BB3F786
3B3C09B4
BAA11C61
3BB08B60
3CD3BDD7
3CBC90F1
3D8455BB
3D4006CC
3CC96201
BB95BF4E
BC7237E1
3AD13156
3BE2D611
3D142943
3D8240E0
3C3B98FA
3BBCBA64
3AEE5936
BD1027EA
3C804E72
3ADA6EFE
BC41608D
BC91B48B
3C3F56B4
3BB8714C
3D43CFEB
3D4B847C
3BDCF916
3D16A26D
BC62C6BE
BB00E2B2
3C48F74D
BCC0304C
3D8A0F95
BCBA8689
BB938889
3CC81A3E
3D1A0E77
3C72F03E
BD170D44
BD01BDDF
3CD12A36
3B89F531
BAEFF047
BCF4E332
3D0A46D8
3D2697DE
BC297BC5
BD207EC6
BD5EA272
3C395166
3BFEE997
3C832DA3
BC327F2A
3BB8B62E
BC4B8C65
3C17BF45
3D5C6411
BC23E501
BD8C8261
BC52B043
BCE3257B
3BBC2674
BC8AD270
BC7B2195
BD5046D3
BB906BCF
BCE125C4
BAFF9F9B
BB77C53D
3D539156
BA8BAB01
3C4D94DC
BD95D679
BD33A706
3BE1D6C0
3BD77F4B
BD86EA22
BC93AACC
3B9F0DD3
BC2B82AA
3CBFCA8D
3CF3EB01
BD07F45D
BCE09835
3C9FF058
BD038EE9
BD2B7166
3CC17212
3BEB0713
BCB52AD9
BC77E697
BC32BE0E
BC99C093
BC969F44
3B50F509
B9DEE178
3A0062D8
BC965C5D
3C821FAE
BC2763B6
3CAFE48A
BC84E46E
BB4B3B77
BA8605A7
39967DE2
3C8ABBA6
3C025937
BB9D36D6
3BB80FED
3CA763BA
37C9F34A
BCB0FA7A
BC45E829
BB62A84E
3AE1ED5B
3BBA2BD3
3C17D426
3C317434
3B4951D6
3C748216
B8B2CAB2
3CA3D11D
BC74EC71
BC534CC6
BCBAD8AD
3ADF83E2
3BB4B3FF
3B83D40C
3C58E8AD
3C810DDF
BBFA1CF7
3B236D07
3BED9B83
3B9E8B75
3C9C55E2
BB6069E3
BC39A3D8
3BF3D195
3BFD3F54
BC5A7337
3D3A5FFC
BBB96F09
BAC7F33D
BB368652
BC1C8BBD
BCC1E094
3B7EFCE1
BB452006
BBDDEE88
BBAB5FF5
BB8833C4
BCD6D2C9
3B252B52
3C82F7B4
3D08FC5E
BCAB8DF7
3B8BA9A2
3C157C25
3D2C3AD8
3C01742F
BC9690F6
3CA6802E
3C087D51
3CD01298
3CFBADEA
3CEEA3EB
3C15A85A
BC226CA1
BC99C3D4
3C62A222
3C291719
BC19E8C6
BCD480AF
BC1E6D86
BCF03797
BC06112F
3CA31267
3C84F3C3
3BD93371
BC3670B1
3B87A322
3BF65977
3A4B9004
BB92593E
BAB2E1EC
3BFDC2DC
3C28294C
BAFB91F4
3D17F200
BD8D20C4
3D341C48
3CBCB670
BD5AEEAC
BD55E50D
3CD9AEB3
3C75E336
BD4D66F4
3D427A58
BD4A3810
3D9F7628
3B533339
3D6EA758
BC600B70
BD01080E
BAF0824E
BD5D1DAC
BCCDBA20
3C813F01
3CE5E6D7
3D5A1C5F
BB0C4A26
3AC3538C
BD4B533C
BCC6F9B7
BB8D4B0A
3C359354
BD98F21B
3BCCD87F
3C2920B8
BC9976D1
BC679F31
3D65062D
3BADA8FA
3B664899
BDC42AC9
BD3DDB7C
3C8565FA
BC23150A
BD740764
BCD20809
BB301517
3C43F4FF
B92C505A
3D47DB1C
BD12F1DC
BD917C5D
BD2C7E18
BD7820A7
3D908F64
3D5C6CB1
BBE03EF1
BC488309
BD22DCBC
3D3292BA
BC7F51D6
3BC9DC4D
3B659B51
3CE59F08
3D032077
BD28D7FD
BD56F5E1
BD0D068F
3D5AA19B
BD12D91C
3D970EFF
3D1984D6
BD761379
3A947AF3
3DEEF22E
3D192C13
3D613233
BC1B46CA
3CBD59D4
3CC8CBAF
3D6C650F
BD1DE3D2
BC029AD8
BCB4F4DB
3B1EA550
BD08627A
3BAAF43E
BB856828
3D89D6E4
3B7B3A0F
BCC2D43F
BAEFDCF3
3DCE2D9E
3D5EA269
BD1B0720
3C18990D
3D75D77B
BCC5B924
3D6B8629
3CB68CD7
BD903F91
3C9812DC
3D6A3AE1
BCC85639
B86CB83E
BCCAF97B
3D2F3446
3BD02CDC
BCA7F64B
BD0C156C
BCD19F8F
BCEDDA50
BBCAB72D
3C9046D3
BD0D9C50
3CF118F0
BBB392E1
BD0C7DE9
3D27F93F
3B95A6FC
3D0898A3
3D76154D
3D00E4DA
3C79B4D3
3B14BB65
3C7435FC
BD415664
BBE91D52
BBC175B7
3DB72ADC
3C93BE9E
BC3CE24F
BCF8767D
BC93B816
3CFBF118
BD3F290F
BD22DD78
BC4AB956
BC70D031
3C855F46
BCCA1D50
3B39540A
3BE37F59
3D8F538F
3DAE1D74
BD196D9D
3BD7E798
BC8734B9
BCFBC045
3CDD04E8
BC857B5D
BC3FA3EC
BC83D767
3C9A067C
BD7D3A8A
BC6AA925
BD00ACBC
BD64BDEF
BD28C9B4
3D34B979
3CA7430D
3B8699DC
BB922E18
3BCB2E93
BCFB3B17
3CAB0802
BD1E86B3
BCD6BD95
3D5F7BDE
BD4E53FA
BD81EA8A
3D021831
BB32F75A
BC17363A
3BB545A3
3D78221D
3C77493E
BC661AC0
3C11E43F
3BAE83FB
3C3104E7
BD26DE7F
3D4323B4
BD358E54
BD6AAF6D
3B944CB1
BC6C1F0B
3D263C48
BD33AB0E
BC2560F6
3C184968
3D2A3143
3D1DD736
3D3A98C2
BD700855
BD3FDA59
3D154A26
3CE5142E
3D13DC7F
BCF774F6
BD46DD13
3CA0E0A5
BC116756
3CE3641A
3CC3BEE0
BC9AA37A
3CA5D413
BCD65134
BC08F6E9
BD0B8638
B9BC80A7
BCDEA164
BCF74C08
3D0B76FA
BD559D9D
3C6B56C8
BCFAC6B4
BD25559B
3C7C1456
BD1449B2
3BCECADE
BCE719CB
BB491399
3C3B9415
BC806B21
BC921CA6
BCFC98DF
3C94F294
BDAA72EE
3CF9B027
BC0DA938
3D0EEBF2
BCFDEF42
3C95E516
3CA5A69C
BBD42764
BB8AE765
3B8D28D9
3CC75D29
3CAB9BC4
BCBF8508
BC063721
BC121AC1
3BBB2DC8
3CAA1799
BD47B9F6
BAB72451
BBE1213F
BD644B89
BC868D8C
BAD71BCE
3B0B79D3
BCA4AFA9
3CAB4911
3CB26173
BB6D8A9E
BD46EA23
3C75422C
BCC4DFFE
3D48C6BD
3BDFEA7D
3CA426A6
BCB1B780
3D0DCC1E
3C3B98D0
3D17769C
3C4A153F
BAE9BF0D
3D6632DC
BCF757FA
BD07C865
3C32F979
BD2FFAC0
BC149A75
3D13F4B0
3D26F893
3D75E094
BD28B2C5
3BA5DDFE
BC98C8A1
3C02FED0
BB31E2C3
BC42AE39
BC9D174C
BD135CB0
BC59E4B2
BBE20FC2
BD1FBD7D
3D5774A9
3CB1A8C5
3CF50C2A
3C8FB4F6
3D1F7B57
3C7BD5F3
BD3A78BB
3B8A0C1D
3D1204F8
3CCEFBB7
3C488C01
3D04A944
BDBB69E9
3CB8F6CC
3CBE141A
BC98F0A3
BC681D50
BA37809C
BCB30BFB
3D1C4DCA
BC1490B6
3BD240D6
BB7898FF
3C6FADBF
3BA7B5A1
BC06AB49
3CC17509
BD1F0A05
3CF634C8
3C386EA0
BB24D294
3D05BA25
BA25E3DE
3C468E3C
3B486F90
BCEFAB24
3CDC5D58
3D11076D
3C81A945
3C49815C
3CEA7682
3BFA11A3
3C71989B
BC65C27E
3CB3CC92
BB913449
BCB564F8
3CE0ECD8
3CAB6644
3C39C0E0
BCDBBD74
BD069F40
3BAF54DC
BC101DEA
3C2CC84A
BB8417CF
3CCEBE12
3CB00EDB
39DA2F77
BA8C31E5
3C8D34D5
3CEC4A80
3C18ABDD
BC7B8820
3C40156F
BC3F4527
BD05845C
3C60C9E0
3D211292
BC8B8E2B
3C571972
BD28E4FC
BB8EED49
BD2CEFCC
3D04E339
BD811F5F
3BDAF021
3C7E2577
BC6A0D5B
BCBAC24A
BD16CCE3
3CA38AC9
3D4D8074
BC409657
3BD2F502
3C1EC9D3
BC609900
BCC130DF
BCAC6880
3D1D65F8
3B993A6D
3BEA5015
3BAD3BBE
3C21FDD6
BBBE81ED
3B09248F
3CB31D35
BB496485
3CD9B902
3CB458AD
BCFC7F8D
3C5FB981
BD34AA9F
BBD60736
BC70A21C
BAFE587E
3CFD742B
BBD0712A
BBAB464D
BC888265
BA86A0D5
BC9D668E
3D47264E
3B947F5C
BB1EA76B
3C96A8BE
3B585CDD
BD17FAB2
BD4E491F
3D132A77
BD20AE20
BD4DA779
BCE67E2C
BD529C47
BCBE78B6
3BF04A36
3CDFAF00
BCC43109
3CCA6AC4
BCEB7DD0
3CE93F90
3D34D7A4
3D35C2B5
3C4940CA
BB372D38
BC601208
3C7AFF36
3D5D06DF
BD074DCD
BCC33FED
3D22ED70
BC4FAACB
3C82E2F5
3B6EA94F
3CC205E3
3CB710FC
BC70AB4C
3CB67447
BC075556
3D4E359E
BC51CACD
BBB939BB
BC33C1E8
BB000707
3C645D26
BC15887A
3C9808A4
3D604AFF
BCA23983
3B38BCCA
39FB349B
3C822B6D
3D4391C3
3C6F85C1
BD0C5569
3CEA5231
3CC024A1
BD546B69
3D56873E
BD1E9EF1
BC93E145
BB8DF586
3C16CA85
BD948153
3C134571
BD53519D
3CF78EFF
BD0DE9FC
BC8C9DCE
BD9B3C8D
BCA9E60D
3C6A5B78
3C0479D0
BD0B0C88
BB6815B7
3CF2CD9F
3C36D232
3C84A603
3CA5C54E
3D2D4D7A
3D84C8D0
3D2F32BC
BD22AC43
3D0295B6
3D096C34
BD64F880
BD4774BF
3CE4B89B
3C92331F
BD5B9E14
BCDB36D7
3D3CEFF7
BA9BC6D1
3C7C090F
3CA423E8
3CBEC945
BC8E33BB
BD0AB7D3
3CD5E4C3
3D303ACE
3C82FA18
3B24E643
BC92A5E0
3D654EDE
3CE713E2
3B71A089
39484358
BCEDCC57
BC4B57BC
3BA1290A
BD0793DF
BCD6A85D
3B724103
BC67E7D6
BB8B7827
BCA6DE16
3D0D5CA2
BCC31B31
3D24E17E
3D32673C
3B6DF02C
3C898510
3B87404C
BD1BE601
3CB1B58D
3C5573AE
3C15C205
3D389B04
BC055D5F
BA9BFFDB
BC005F89
BCAF479F
3B83BC15
3C5E14AF
3CEAFF34
3B949626
BC5DD7C6
BC3CDF75
3B78F099
3D127536
BCC40FE8
BC863DD1
BD1D123A
BB54FCEC
3C8291B2
BD029959
BC3ED472
3C989E51
BCA491F7
3BAE54CD
3BB6F0B3
3C80283A
3D1C1E22
BBC10EB5
BC7C0430
BC48799A
3CDDE0A5
3C0E8BEF
3D761AF5
3C252F18
BC953516
BC732DFD
3B13629F
BD61F11B
3C6911DF
BD0976A0
3C561C73
BC07F563
BC1D3296
BD43F785
3C0AC1E8
3C3961BD
3D9CBB9D
BCB41B5C
BC861FD7
3CDEC61F
3D0B0FA8
3CDD8F90
BCB1FBCA
B9A65084
3CE22DC1
3D189091
BAD86591
3D144322
3BC955F8
BCEFF91D
BD09B75C
3D131E7A
3CC7B268
BCDCF7A0
BC0215F3
3CA5FF3D
3C3BE878
BBB12596
3D004B0E
3CF604F1
BC1FA0DA
BCAA289C
BBEEAFD5
3A6DD1BE
3B9F1423
BB7142BD
3CD3843D
3C8C67E6
3C11B108
BD02963B
3C839D2D
BD69B031
3D34E5CC
3D3A2009
BCFBAF92
BCFE2358
3CB636B4
3D16B03C
BCB2867B
3D93D1A5
BD006DD2
3CAFFE0B
BAE4B629
BCC5DB43
3CB8838E
3D071277
BD14B3D7
3B0AD2CA
BD0F8426
BB657061
BC0A6A05
3CA677C3
BC7F00C6
3C90A830
3D0179CC
3C058736
3D0517AF
BCC8B65A
BD214F18
3BF0699E
3D4D6BA4
BD06F697
BBF12367
3C0F410D
BC047B01
391122F4
BD96540C
BCDC3B58
3CA0D8C0
BC745DCD
BC5BF7F3
BD285106
BC3EF2A5
BC645A15
3D6EA06A
3D9B78A7
BD646AB4
BDB63E51
BD29760A
BD60A91B
BD603E67
3D7FC5DF
BD2FB921
BCFB5D52
BCA795E3
3CD5E646
3C9AC7DC
BC4EEB0D
3D2162BB
BD2F8513
3CBBEF35
BABA77E7
BD348038
BD102BC7
3D50D6CC
BD518E16
BCCED1FE
3D6C8DE3
BD62B555
3C1260F1
3D32FE81
3D069D41
BC253C52
3C166E8D
BCFA983D
BD06C455
3DB4A912
BD7A583F
BC43E6CC
BC1FA8A3
3C3E8A1F
BD502207
3C15E731
BC9CAFA7
BCACA037
BDA2D970
BD748FDD
3CED9640
3DABC139
3D85047C
BD0134C0
3C61F84E
3BF54827
BD3E1807
3D930CFC
3CA9B054
BC2B38A7
3C003985
3C69AB2F
3CC2CFAE
3D17F520
BBA0B089
BD93B186
BDA91428
BCBCB6C3
BC558A8E
3C1A5F1E
BD3B9819
BD55239F
3B985565
3D228E71
BD9F653B
BC71B513
BDA22DC5
BC0C3430
3D2E8787
3D3F5ADE
BD40EDCC
3B21664E
BD7A58AE
BD01F0C3
3D0FFCF7
3C236A63
3D2A5773
BD27ED38
BC80D584
BC528111
3CF51B93
3D98D244
3D4F3BD8
3CF7FAC5
3D072878
3D581E83
3CF6C664
3CC57684
BCC01FA1
3BC91B08
BD126EF3
3CE24A7A
BCEB5A1B
3D82CA29
BC7CC72A
BC7C6855
BAEFF550
3D0E4533
BCDBAC24
3DAD8C6E
3D3EF95D
BCD7E7A6
3D226AB9
3D3621A5
BCD95ECF
3B608590
BD4AE243
3D8B4325
3CFCD44C
BC5A5214
BD90AB02
3CA27499
3C82117C
3D9AD262
3C02BE94
3DB5128E
BD117C33
BD4F7304
3D80BA6F
3D1FF583
BD9D3C33
BD2B03C4
3CEE9E4F
3BE316DF
BD237030
3C04AAEB
BC353026
3D1C662A
3D513123
BCEC8461
3E097561
3C05ADFA
BC507E46
3BB4EA2C
BC9CFE8A
3D29E8C2
BD2318B8
3D2DA9A5
3CC97ECC
3B4D04BB
BCCDE104
BBD34531
3C70EA83
3D28CE0C
3D00DC03
BA2F8701
3DBE78C5
BD025C29
3D67D8E4
BC9A8E44
3D4986C6
3CA075CE
BD3E7854
3BBE16D2
BB8AB5C4
BB91E657
3BAE1C7B
3C7F2850
BC230E2B
BCE400D2
BC162675
3B27BCF3
BD0E11BC
3BF15920
3D338D16
3BF1A74D
BD3DCC9B
BC8D742D
BC6B85F4
3C3ED864
3C8EA084
3C8E7642
3CEDC9B2
BB2F4044
BD119E7E
3BEADAA3
BC674883
3C811858
3C9EEA50
BD0089B0
BBFCF58B
BCE46E26
3C52D491
3A370EE5
BD2B7451
BCE2FE86
BC5848B7
BB427EDB
3D160A36
3C661DFC
BD069AD5
BBCDB487
3D19A3D2
3D3F4BB8
3CA9A42C
3BBAF5D3
3CB0EE95
BD02E242
BD167875
BC843492
3D078CA6
BB26F517
3C89A966
BC0147B2
BC9E4C58
3CEEEF4D
BCA9815A
BD26008A
3CC5B93A
BCDF5061
3D406777
BD52EDD9
3B06DA4E
BD1E8E24
3C945178
BD053EB9
3C232B8F
3C9CCAF6
3B98C902
BCC3AE19
BBF7D07D
3C01207D
BC67937A
BD6DF9C9
3BB392FC
3C2EBF63
BC1FEBBB
BC6AA299
BCE59922
BD0FCDF2
BD010768
3D414D23
BBA57E28
BC2B18F0
3CC031C9
BD7A4D3B
3D314040
BCA25A1C
BD40EA2E
3CBD4336
BCB7BEAC
BD022F33
3B1452B0
BC85B37A
BC5C923D
3CF12635
3C5AADD4
BD048E84
BC9194BE
BC8E492A
3A58A1C0
3C391DAC
3CDEC821
3C6BD3CD
3C891C2C
BB91785F
BD3D6D8F
3D1C1BB8
3C898D19
3D4B6183
3D3D4162
BC71D8A5
3BEAB9B4
38A5BFB0
BCD60D4E
BCE161EA
3DA43CD8
BD545B9D
BCF715AD
BD1C4753
37C42D00
BD5C05DB
BC0D6BED
BCDC50EB
BD474E4B
3D65D967
BCAC42BF
BD066860
BD6F767E
BCEE5603
BC9E8238
3C9440C5
BBD28DB1
BCC58513
3D6E81B0
3CC89FF0
BD296FB0
3C2F81DC
BC03C620
3C9FB63C
3C562587
BC7F38F8
BD6D09F4
BC929F6A
BD33309B
BCABF6EB
3CE9C3B4
BD2DBC1C
BCE864EB
3B8A757D
BACEFA88
BBDEB821
BCBCD52C
3B71A4D6
3D0B4DC6
BD144199
BC8BC067
3BC1262B
398362AB
BD2C89D5
3D588AED
3B608663
3B099593
BCB0AD4B
BD1AFB13
3C9EF223
3D763906
BD04CA3C
3CD243FC
BD67936F
BC163FF5
BD2D4FFF
BC981FC8
BC909A21
BD3E39BD
BCFA3CD7
BC9B61C6
BD397B01
BCFBF63E
BC8BE002
3CB5F2A7
BCBFAA59
3D8683C8
3D9F5477
BC0D3AC5
BC968852
3CB1EB44
BBD24969
3C110705
3B431605
BD238BE1
BCD2C87F
3BF6BAA4
3D3EC2EB
3C85AC27
BBF912F1
BD1634B4
BC925D8D
3C885DE0
3D38FC7C
BD1868F1
BCE6EEB0
3CBF4698
BB7B7F4E
BC2C010B
3A434ABD
BCE1F24F
3D13DF6A
3CDD3F39
3D9E11F3
3D423528
BCA92FE9
3B47B42A
3CA058FE
BC6F6EB8
3C4B0D50
3DC9C7C6
BD9564C4
3D08CB7F
BD251439
BDBBD181
BD8105C0
BC859672
BCAE1867
BCB4573D
3DA5E197
3B268916
BD3E5722
BC8F08BE
BD17D8EB
BD5CD0C2
3B2F284A
3CF6EAAC
3D843F10
3BEC1A25
3D41FE26
BCAE6E56
3CF1F58A
3C16D80B
3C1253C6
3A8AE1C4
BC200FA1
BC5F4DB4
BC6F10D5
BCCBA6EA
BCA3DC46
3D3C5D4C
3D414325
BC9B03D3
3CA0232A
BC85BEE2
BBBB0266
BD77B366
3DAD9BF8
3D0A7F2E
3CEADA41
BD0A4EC7
3D1EA32A
BC645611
BD8B5DFE
3B7C0671
BC9477E5
BCB5DFA5
3C9052F0
3A92A1B5
BC7E4393
3D6DF823
BD5F93FB
3D0C9776
3CC4D65E
BBFBFA88
BD711225
BC64B3DC
3D71E33D
BD7B1436
BD059BBC
3D0C9C9C
BC133010
3CEBF6B9
3CF06887
BAAB6E92
BD58E5AA
3D96CF99
3DD47F3B
BD43CFEF
BCDD9B34
BCDE6316
3D0C4FC5
3C9DFB46
BD200243
BD7004D6
BA45FD79
3CBE5239
3D81BA36
3CD602BE
BD1D219C
BCD7D1D3
BBFA3E0A
3D347620
3CFD8E79
BCCEBC5E
3CD02D9C
3D371CFB
BD548FB4
3CB67DF9
BCD0C13F
BBBC7F54
BC06D185
3B813B67
BC4B4347
BD1A4BBB
3D469884
BD9ECFA4
3D10E2D5
3D42CDA5
3D06F449
BCDFDE2B
BBAE414F
BAE512C0
3D552387
3CF13C70
3D57B02F
3CD6099A
3B1A62A7
BB70F605
3B2AB583
BD2BAA08
BC3C1D0C
3BA87A85
BCA1A527
3D37931E
BD2E5AE0
BD0E1529
BD0C82BB
BD345701
BC98D5AB
BBB6C281
BD049369
BA63603F
3B2F76C2
3CDCD7EA
3C928D83
3D16F416
BD355924
3D46D2CD
3C14749F
3C01E341
BD22414E
BD526257
3B1F63FF
3D11C21C
3D2224C5
3CF157C3
BC9EBCC8
BD13F9B8
3D8CDE50
3D5E5E8B
BD264BDE
3C463FBE
B99EDA80
BCC22D31
BCA1C6FF
3CC5CD6D
BB64F90F
BD00779D
BB5273BE
BB27965A
BB1093E8
3C85E33E
3CEFD2D8
BC81D35A
3D1E072B
3C18BACF
BCB1E3AA
3B616A13
BC28364E
BC4246AD
BB529999
3CA22C1E
BD68D9AE
BC2B7AE1
BCE85CFB
BCBFB406
BCE85132
3D4553C8
3B19560D
399F4ABA
BCB87A62
3C84AD61
3CC1BC6F
BBD8BDB2
BD12C3BA
3BF6303C
BBB9B906
BD0BDCA2
3C87053E
3C833E52
BD3FA2F2
BD52D3F5
BC00A6BD
BCD01538
BD331DC9
BD963C90
3B5C2883
3C12FD02
3C610869
3CCA65B7
BD1A15E1
3C7343FB
3D0328E1
BB8B7FC8
3CA234E7
3D296149
3A8C41EE
BD4AB8B2
3C0D3FBD
BD19DE9A
3D4CE2DE
3CA75FF4
BC45746E
BC671D08
3B8A7AC3
BCDC4690
3C466C9A
3D580234
BD1A9CC9
BC788926
3D699A78
BCF803FD
3D73A264
3CF54636
3D61539F
BD1FE151
3CE537C5
3C3E250D
3D255412
3BDC8884
BB5CCC0A
BD626EBE
BC9CFD29
3D656C37
3C7FFDFB
3B206246
BD6570F2
3D21D469
3C47E1B5
BD3C149F
3D841D76
3D4ED949
3CD1F7B6
BD1D41F1
3CC2D03F
BC63F6B0
BC8B41D1
3CAEDD62
BB46AFBB
3D502CA0
3CCF0433
BD78457D
3D7E737E
BD93AF1B
3DBE98E2
BCFAD7E7
BA974620
BD7A543A
3D1F5069
BD2C6B11
3AABB91B
BC5886A9
3C078994
3BF5ECE3
3D0B6A6D
3C462A5E
3C221EC8
3B9D867B
BC960415
3CB8B889
3CDB4ED2
3A3E3E48
3CC41251
3C6AFCAA
BCA7AFF7
BD047F50
BD011F70
BD01E4E8
3DB4CF25
BD5D36D6
BBEAE234
3C6B1032
BD0A7C7D
3D491893
3CE8F597
BCD8BA16
3B7C348C
3C9EB8B3
BCF420AD
BCABCCF9
3D14B895
BCCBAC9C
3BE60B86
3C3B79B0
BCA1A9DB
BD7787A2
BD1007DA
BB8110F2
3D33468B
3CB0F25A
3D16A250
3BFF1BF0
BCEE93ED
3C89AAF6
3D144849
BD0123A7
BCA12736
3C6F5A43
3B01E2B9
3C1CBD35
BC27B668
3CD1F239
3C58C6A8
3D45B8EA
3C488331
3CAA0306
BC23DD32
BC4612DD
3C86969F
3CB3CCC8
3D998158
3D284BC1
3B7343F0
BD229461
BC550EF7
BBA1D0BB
3D7D94A3
BD2FDB83
BD0D9DF1
3BB578FF
BC89CCDB
3CF28E3A
3CA1B127
BD064D0F
3C52CE51
3D7A36E1
3D299C9F
3B986872
3BB49E6F
BC78F0E0
3C92DD35
BC041B32
BD590C70
BCB0E14D
BC48B428
BCB113AB
BCEB7662
BC439F79
3B857BCA
BD76211B
BD4348F5
3CC263D4
3C0E4848
3D01FC95
BBD9D32D
BBDF948D
BD7B748C
3D04492D
BD4BE3F7
3CA5ED54
3BE2C2AE
BCA26311
BC8CC85D
3D2C54CD
3D145D67
BC2A4E56
BC3662B7
BBD08F0C
BCC983DC
3D12DDE1
BC3B2117
BCECCB03
BCB756CC
BD9B60B5
3D5A3C77
3CBF511E
3CF17DE7
3C8243EF
BCD2C74B
3DCB8181
BD85FDA0
BDB57335
BD2B8A5C
3A9892D1
BD2A3EAE
3C9BFD6B
BB2EFC53
BCF9D874
3D1841C0
BC5F82E2
BC160169
BD62DAAC
3D288556
BCB92D71
3B9D59DB
3D87CC9A
3D99C688
BCFFC649
BC9074A0
3C23C8C8
BCE0B1D2
BD44E5CC
3C930F24
BCD47976
BD76A1C9
3D0E5404
B9818E64
3C8574AC
BCA84255
3B7307ED
3B126CE2
BD2326FC
BC81FA5B
BD810852
BD390121
BB387BC8
BA3A9660
3D03BB43
BB22332F
BCDFA65E
BD5D21FD
3C333D2B
BBF48385
3CA95FCF
BD00CC05
3CF86B97
BD32EF64
3C8A8975
3B9103C9
3C8D679F
3C25C7F2
BC15837A
BD4A9CBC
BC323C09
BAC0A9E9
BD63FDFD
BB8C62D7
3C8BD7DC
BC991F70
3CF5A7EA
BDB67A19
3B37FF63
3BCD3751
BC50AD79
BD1E780C
3C0E886E
3DA53286
3B965609
BACEDB8E
3CD706F4
3BD83694
3C8FEA67
BCACBF10
39A3649E
3989DB85
3D46CFD5
3CAE6485
BC12F426
BC5D23E1
BC8EED64
3CEDF021
BC280474
3D593ECB
BBEBF414
BD2CC343
3CA7A580
3D5006D4
3D20BCA1
3D62F07A
BD11E825
3B2C8EC8
BC278100
3BC11D8F
3C66CD7E
BC98CC04
BCB9EBC3
BC17588F
BD19B89E
3B5473FC
BD3FE360
3D984184
3D41B1C8
3CEB0994
BBBEA31D
3D51181F
3CB0A910
BCA485D4
3BF1C51F
3CD2621B
BCEAB207
3CA66BD0
3D2F444D
BD2BC236
3D0BB9F6
3D19EDA8
BCB5A3F1
3D5BC9D6
3CA49894
BD2E1B9E
3B0375D8
BC91EB28
3C64EC4C
3D8BEC75
3BD3FEE0
BCE5A32E
3A4164E2
3CCF2DF2
BCA62D58
3C629FB3
3D0D21A7
BBAA99F7
BD3BF1D2
BD43E402
BD83C785
BD15A96A
BC0AAEDF
3C8EEC1F
BAA7AFAB
BB56B3FE
BD526D2F
BCBB1EC5
BD908D32
BCA09AAB
3CA95CB6
3D182049
BB8F1FB9
BD418C66
3DC6725E
3D0D9536
BCAE1B14
BBEC13DA
BC782E7C
BB8B3611
3D27D244
BCE2A8D5
BDF0395C
BDA55095
3C8C45BE
BC397B3B
3CDF244F
BD1D486D
BB65190F
3CE82A96
3CC91521
3C613A4E
3C6E440A
3D854C43
BB9FB405
3C8B875C
3D49D985
3CEE48F6
BD2D604A
BCB4F616
BB072865
BC1863F2
3CF33A1B
3D650ABE
BDBF6098
3D05D9F3
3B573AF5
BC994222
3CB2B309
398DD28C
BD14F954
BD24A596
3BD1D374
BB3B4BDE
3C1B1DA6
BC0E14B5
BCF094F5
3C0E19AB
3C9962DE
BC5B1308
3D50E77A
BD32D69D
BC2A25D5
BCD80A00
3A40B730
3B32EFF2
BDD4D18A
3CCE89AD
3E18F320
3D890238
BC890B97
3CC949EA
BD495048
3C6B3FC2
3D2438A5
BD373449
BC961248
3BC04ED0
3D754518
3C8DCD06
3C1C8315
BC44846B
BD6FEA1E
BBB665F8
3D20DA72
BD0A7CE1
BC2AAEC4
3C2CE430
3CD2FEE3
BC72525C
BCA0689B
BC19FDDE
BD1220DA
3B8288CA
3C2879F2
BC74E4B8
3CAA41B6
BB869495
BD17C5E8
3C03C5F3
BD384307
3BEEAED2
3C618168
BB07ABE6
BD72829B
BC36AA39
3C8B53B5
BCB73AE7
3A17C8C6
BCF9A7CF
3C8DE168
BCF6D1EB
3BC26C94
BD1BF522
397063B4
B98FF8C6
BD05D01F
3C4D9303
3CDF35E3
3D0A8CCB
B863E756
BCE931A3
BA763D79
BC82E020
BCEF7C98
3C911A19
3C9454C1
BD909263
BD3B683D
3BAC5EEA
3D802353
3D0DE157
3D458D94
3C4433A7
BD0772DA
3CE3A13F
3CF282D2
BC8690EB
BC6EB990
BCA1E97A
3CD58D72
BD8140C0
3D385FB7
BC55D7A6
3CCFBB06
3CBBFC91
3CFA9F2B
3C13CA17
3C8BE576
BD1109E7
BCF0BA7A
3BDF1118
BC99844D
BD3668A4
3C6E1DB0
3CE8D874
BCB774E6
BCEFC417
BD4A3F18
BD4904E3
3CB5E536
3D38AFB2
BC65303E
BD167166
3D0A96FD
BD6F5700
BD20A14E
3C683D93
3D376992
3DAE1495
BC80BA3E
BCE064A7
BD0B5875
BBB9609A
3C15FD20
3C2EFDD7
BA2BEA0F
BD0B0D0E
3D413A62
BD1E1FFB
BB717D7D
BCD86139
3C9F4116
BC628717
3CCA462A
3D3DF016
3D1CBF6E
BB3E3A9F
BBBCEF2F
3C729D6E
BD0B2A44
3D09F554
3D4328D9
BD81EF94
BABB300B
BD44CBB1
BD08CB96
3D953D0A
3C2997D9
3BD26A1A
3D3532B5
3BC7911D
3BC5558E
BC95CED9
3C6418E5
BD87651D
3D3D6B58
BC2C4BA2
3D9B9C01
3D92C174
3C5C7350
3CADADF7
BD7EA959
BC3CB806
BC246CC4
BCBEE9C1
BCC87FC3
382AA034
BCE89BA3
3ADD8BF4
3D5B2A40
BB73FBD7
3CBD1E03
3CD7573C
BC36169D
3D3268F4
BD974724
3D6D970B
3D36E7C5
BCFE2215
BD20E83D
3D15E723
BB639FD9
3856667A
BBAA95B0
BCD1E900
BCCB6352
3AB72C66
BC5E3A1D
3DAD15C2
3D31A7EF
3D876EA2
3CD852AB
BD829CB3
3D9C273C
3CC4342C
BCA91E5A
3CD3F2C0
BD3CB396
BD4DCAE1
3D32A79E
3D805C0A
BC247E9A
BCB403AC
3C96403A
3CC0FB12
BC0E66FD
3CE5DDA2
BCD83341
BC4BD33B
BD2543EA
BC9772E0
BD2EA761
BD8EE56E
3B885623
3CDE06AD
3D4E1DA9
BCECF806
BD6453E6
BD12C331
3DA606F7
3BEA1F65
BD02808C
BD416EEA
BA4FA9D6
BC10A547
3D233B8D
3CE10B42
BC114AB4
BC045F66
3B8D9AC5
BD015EAB
BD1C118A
3D129F92
BD6A8068
3D0BCDF1
3D4855F2
BD04AC6E
BD1870E8
BC0350A3
BBE3E0EB
BC3D1DD6
3D8BB431
BD2F05B2
3D11813A
BC861672
BD44C0DD
3CB3B7D4
BB9B9317
BCC8C3ED
BCF775F7
BCAEA8D8
3B8A1DDC
3CAC5299
3CE6CBB6
BD018DF6
BCFBB351
3CC803CD
3CEA05E6
3CBF4FAA
BC02C2EA
BD27CC26
3D06FA9B
3DA29736
BD84CE2A
BBB2EBC6
3CC1B5FA
3CB8B139
3B9A28B6
BD7939B8
BD6C3C21
BB1C1D4C
3CABB6C4
3D7B7A3A
BD5003D2
BB31B92D
BC8EE92B
BC8C6D0F
3D575171
BD142CE5
BD5C8E01
BCE9B85E
BCBBD57D
BD598F96
3CC2C012
BC9494CC
BD4C9B22
BBEEE464
BBD50100
3CB432C5
3D54A8C6
3C53C2D4
BC8228B2
BD245A22
3DAA9871
BD6DAB25
BD111FE4
3D559F5B
BD39B913
BD42F2E8
3D18E236
BC6FEE90
BC6121CE
3CC0E11B
3D417172
3CDF9659
BC316FCC
BC81F56E
BD4017C6
3D81C34E
BD0C06D6
3D9B5086
BC78232A
BC9C23EF
BD159B2E
3B519CF4
3D243EFB
3CF12799
BD21866C
BCCD4DFF
3CDB1828
3DAD475F
3D823DC9
BD3AEC21
BD13FC01
B9AA0B92
BC82A903
3D87DD9A
BCB3EC0C
BD4DF54E
3D12A0D3
3D2377B4
3DA6EADE
3C2ADB69
BD6B1577
3BD5325E
BB765176
BCA15F3B
BD602EEF
BC80C56A
BC4F8AAA
BC4E1366
BB9F709D
3AC4137B
3CCBFBB1
3C9F67A7
3D174C1F
BC5F9B76
3C85DB85
3CBBE958
BBE92EF2
3B30C762
BB865FE4
B981C2FA
3D30E17D
3BA829E2
3C05FE16
3CBE2E0F
BC6AF169
BC132EED
BB81754D
BD0EE53C
3CA09132
3C035E53
BD26B9D0
BC978C2A
3D5C6663
BC84748B
3BCD171A
BD3F7573
BD33D358
3CC9B03B
3BD3369D
3D2B6631
3D04B9F4
BCF33D42
3C38FCA1
3C086FA8
3ACC6DCD
BBEE887D
BCE9D760
BD3B189F
BCAEA916
3B100DD2
3C9FC00C
3C7202B1
BD0CAA89
BCCB5F8D
3CD5EAB2
BCAF5DFE
BD4A60B6
3CC36DD4
BC7C841A
BC8F5D8D
3C47967F
BD5B00BE
BD181D0B
3C66E829
BBAAE1EB
3D36F0A9
3B5AEFFE
BCE63BF0
3CC69939
3D46DD5F
39ECF14E
3B146963
3C19E48F
3C8625FE
3C815255
3D1BE08B
BC90FBEB
3C58F7DC
BBFB881A
3BE9E276
3BD2E7EB
BB96ADC0
3C0B9BD2
3CB0F2D1
BD83490C
BD836108
BC41534E
3D044188
3D5428E9
BC934C5D
BCAA6851
3D88267D
BB66228C
3BC3D3D9
BC2340E7
BCE7C00B
3C970DC1
3D1A7A00
3C81890B
3B9A46FA
3C7FD512
BD5597E6
BBC10A53
3BA4DA7A
3CE19921
3D81BEBD
3CF56764
BC2CB215
BCA68CC6
3D6E9A6B
BD1306E7
3CE8BF59
3D762937
BD25F81B
3CA971AA
BD1B7B9A
BD810ECF
BA4A9653
BC44FB8F
3BE84D37
3C0E4E31
3D46CBAB
BD3CE450
3AC419C2
39DEB42C
BCD9A444
BCEBB2E8
3C14CEDE
3C0FECB1
BB70EB34
3D8B056F
3D3C8A34
3BC3C1B6
BCEA4109
BCEBC576
3C865CEC
3C8BFD74
384C02F4
BCF21069
3BBED29E
3BADB395
BCCAB9CB
3D1A1F86
3C7023EC
BBC025FE
3D2680EF
3C7C72A6
BBDEC59A
BBC52E19
3D982AE1
3C6A7C8E
3D64AD27
3D4CD019
3D79057C
BD074BCF
BD0ACA5C
BD0C7285
3D1B7BAB
BC9843C4
3D8EBFD9
BD62B7DB
3C35875C
3BEA6B58
BD95432C
3D536A2D
3CE6FB74
BD25BAC3
BD311C4D
3C1F0C1A
3CF02FB6
BD558BEE
BCCCC0B7
3D306F1B
39A6BAF0
3C15C55C
BC142077
3CEF3841
BC8BC1CF
3CE13905
3D508573
3B5D5C77
3C1CFD4B
BD5AD08E
B8586F8C
3CBBDB90
3C568C8E
BD3AF964
BD073F7D
BBD781CF
3D6D3EC6
3D117667
BD13B8CC
BD294591
BCCC1B56
BB91B586
3D2EBF02
BBCD272C
3C9CE6D6
BBD53282
3D181C9A
3C6081A6
3C922038
BD0735C2
3CA6831E
3C4AAEF4
3CE6E939
3C4F4459
BC3EDBAB
3D473220
BCC9F4D4
BD35E81F
BD2C525C
3D1EF5E2
BB61E896
BC4DE4FD
BC8B419D
BCDDB0F9
BCE90FE9
BC94F00F
BCC65037
BD1B1970
3C08F085
3C42679A
3BBFE64F
BCF27B49
3B666746
BC8A768B
3D749FA2
3D08E5E2
3D660884
3C3D68E5
3CBA46BE
BD0032CB
3CCC0544
3B56C482
3C4FF64E
BCC5B4DE
BC0B8C64
BD0E54FB
BC093B07
BCFFD9D3
BC1F34D1
BBE46186
BCC1343B
3C0456F4
3C9760AF
BBD67B84
BBD06128
BC349922
3D3ECD5C
3C116E2F
BD65EB76
BC8225FB
3D58BFE6
BAE22560
3B785CC7
3C74A5FF
3BB25343
BC6D93A2
3CA0532D
3B874A2A
3D3E89B4
3D001A62
BC9DA394
BBCE751D
BD753436
3BEF954C
BC85C76B
BC2806C4
3C67A6B9
BB423198
BB72CEB1
BC953607
BBC501BC
BCF8BCE9
3C98C3E4
3CBBB11D
BC4B9ED4
3CF3DC8A
3C81B645
BD156EBB
B9BA1C21
BCEE6519
3C9CC8AE
3D19EFA7
BC64D61D
3B880B2C
3C21AA4D
BC87FDFD
3BAB85B1
3D04ADDE
BB355362
3C8A3756
3C95C634
3CF964E8
3B7E3D26
BB5E09D9
B9E0302D
BB1C9AA2
3CD63956
BD2D4141
3D1731B2
BC4D702D
BC0314BA
BD4EB279
BC0AA07C
BD264645
BBF78358
3C0D4064
BD3AE302
3D2382FE
BC544FB0
BC88255C
3C8E75B4
BBC282E7
3D026104
3CC0EBA0
3A33C379
3CC64754
3BDC2E93
3D19010E
BCF201A0
3BA76274
BD6D0987
BCBF727E
3BCF12D7
3CA02401
BD38064F
3B525720
BD1898F6
BCB914D0
BCCC3C5C
3CDD44B2
3BBE5F77
3CCBB30A
BD0DF21C
3B236366
3C188E63
3D2D2C43
3BA0AA40
BC791B42
BC64A49F
BC8C8F2C
BD3AF0F9
BB0AB974
BCC0EE54
BC1BE04E
BD01F2CC
BA8553E3
BC990937
BB8BD8FF
3BD64D75
3C4C9096
BCD1768F
3D91B8ED
3C45D084
BD2B16A5
BB290440
3C6AEC4E
B91A17BF
BCD57234
BCD6EA7B
BD02941E
3D6F3BA1
BD10C17E
3C2B82F9
3CD452B5
BC0781B6
3C2507E9
3CE03222
3D1EC09A
3D724B38
BCFAB60F
3D07D8E0
3CC97931
3C8FF9FC
BD028A7F
3AEAD8A7
BD1AF6CA
BD26559E
3C4938A5
BC9029FB
3D246B9B
3D4B0262
BC3FC096
BBC6EA19
3D01E15C
3CCAC46C
3D2583F5
BD434692
BB668623
3D8B6DBC
3CF60A63
3C071B2B
BC0D3F35
BD8BCB83
3C72CD78
3CFD2CE4
BD244A45
BC21FE15
3C0F1F9F
BCAD04B5
BD22C0C9
3C33AB56
BC322B51
BCBD8CC5
BD6F9CF7
BBD43AD1
BC0B71DE
BA29D878
BD75DCF3
BC8323D0
BDC8B16C
3C72DDB0
3C834410
3D793A75
3CA37C22
3CDDB5F5
BCC1C6F0
BCE517E4
39A60332
BC7FEE19
3D72873F
BC2BA695
3CC1986E
3B6F1125
3D2AE681
3D4BA6FD
3ACF262B
3A943E40
3C479259
3C46A503
BB13E7CC
3C3E0523
BC21A124
3D227301
3D2C569B
3AEBD00E
3CE4FE3E
3DA3B08E
3A3AB7B2
3B584E4A
BCCBEAE8
3D49A03C
BD0292F4
3D461A29
3D425EE4
BC294129
3D5F6BFC
BBD2B44F
BD206AFF
BC70B7EF
3CE63F31
3C8E3135
3D38E1A3
3C97ED0E
BCC804FA
3CC96FC1
BC37779B
3C99C0A9
3C05C162
3D86E20B
BBECF7DA
BB1F53A2
3CC38DC3
3D7FA2CE
BD0F43C2
3C0CBAE9
3A14C1DA
BD1C2721
BC604373
3D05B5AB
3B1EEDFE
3CDE124E
3C7F1105
BD242CCF
3D57ADF0
3C206E57
BC455F67
BCFDADB6
3C480717
3CCC2C67
BC6EA493
3BA15A55
BC5C7C7E
3C6E4BBE
3C34D617
BD0BB975
BC1CB480
3BE97ABF
BC9167E7
3C4FF44D
3DAAEF94
BD1A7FE7
BCA923F3
BD477B48
3CF00204
3B65DEAD
BD8BD0BC
BC846BEC
BD09CD03
3D59652B
3CC5FECB
BCC729A6
BD21649D
BCE46083
3CADEB83
3C333DFE
3D4ED183
BD84AF1D
BAE545C0
BCF98041
BD809D77
3CFEB3C3
3C305A35
BC2B3F8B
BC9BF6EB
BCA7F4AC
3C2B3A26
BB114133
3BABC0B3
BD08E4A8
3D08779A
BCBE41E1
3DBBA50F
3D01A82F
BCD9B658
3D29722F
BB655DD7
3DBE59DA
BD386141
BC960D0C
BC363C6A
3B4B1535
BC00D853
BD13F3AD
BCE24F46
BB926257
BC82D688
3D9683DF
BD386FA0
BAFBEB4C
BCD823F8
3D033D91
3D383692
BD26B8A9
BD5CF044
BC836576
BC71AFAC
BD43A197
3D1ADCF5
BC7E4E9E
BC3F0EFA
3CB709E7
3CF79853
3D29EA31
3D34116A
3D1D6925
BD12545A
BD1DFC40
3D37655C
BD28C6E7
BCD96D8D
3D077B42
BD3BF54F
BD9D7988
3D28AB39
3D0F6980
BC8AC9C1
3C831149
3CD048D8
BCB2593F
3CA2D526
BC4B1418
BCF3D2D8
3CEAE764
BD339B99
BBE5B19F
3A0DEC1B
BCAA6F8D
BCCCD435
3C8A0FFC
3D1EABC3
3CFB92BF
BD818C70
BD2445E1
3D0D8D60
3D7867AA
3CF77DE6
BD182497
BC2082C0
BC269284
3D01927C
3D7A1444
BC39D3A5
BAFB8A81
3CA60D87
3C456411
3DAB75D6
3D7CF5A8
BC7D78CC
BBC477AE
3AFBF1B8
BD05AC11
BD18D047
3C72ECCB
BCD0951F
BD454FBA
3C9F88C3
BC873F78
BCF6568E
394E123F
3BCA2E99
3C333902
BC95F295
BC1E762F
BD20A9D8
BD1CC3EE
BC51ACFF
3B1E1C50
3CB60055
BC8AA809
BC89F80F
BC76B777
BD3343DB
BBC7D0A1
3C0FE645
3BB782AA
3C4E97A9
BC9AC43D
3B353231
3C83F763
3C2A128B
BB3BCF2F
BC3F0ABC
BD0F7F00
BBBAFBA4
BB74EF70
BD4BF6C8
BD568CF9
3C07F713
BC5DEB6C
3CA06E65
BC81D90F
3B209A38
3CC2F45D
BB031267
BCBE39DB
BB502094
3D882ED2
3C672741
3C21AA7C
BC06AA7E
3BB5E5CC
3CE0F733
BB57D7D7
BBE59C7B
BC8C1A7C
3D48F955
3D2CCA8E
3B27D2A5
3B7F9049
BCFA453C
3BD73B6F
BA1C3F32
BC8A2032
BC7D25C1
BD490CF1
3B5D0A7F
3C1DD17E
3D066C26
3CF16299
BCA893A3
3C7865BD
3C61762E
3CE05151
3CDC575C
BC40B690
BD064269
BD1197DA
BD07C061
BB93DE83
BD45488B
3D599406
3D8A078C
3C914182
3B4C500C
3D4299EE
3A5B14EC
BC9D2B25
3C6617A1
BB5DB3AB
3C06ABEA
3CCFAFC6
3D421E9B
BD90956B
3D1F3540
3CE98991
3C784DC6
BC491AC1
3D09805D
BCEFAD31
3D17707D
3C952701
3D62A1AA
3D103FD1
3D28AD42
3D716E11
BD38EAD5
3D982848
BD36A6C1
3D01AF6F
3D130A48
BD1208CB
3D271F3F
BC7371EB
394DB60C
3A3234D0
BC32776F
3C4602B4
3B204C77
3D6C3689
BCFABD5A
3D5D6F31
BD1D1F77
3AD5922B
BD09DEDA
3D53AEF6
3BD93399
BB1EEF01
BB069BA5
3CDEE2F4
BCD4731C
BD4827AA
BCD4B25C
3D070327
B98552FB
3C817D88
BC6C2DA7
BD8A41F0
3D943779
3BE5A697
3C57556E
3DB9ABC2
3B91B129
3CE664BF
B9C16DB6
3D173CE3
BD06BA0D
3B966D82
3BD83A0E
3DA397E3
3D2E7F5E
3CFFB111
BDD0AFF2
BCAED5CC
BC30192A
3D378932
BDAF605E
BD2D8A7B
BD554405
BBD29A5E
3C7C1CA9
BDA23374
3D55B6B6
3D385F2E
BCCAE598
3D15E4CE
3C72D619
3BB7111E
BD8AC8EA
BDDB1F58
3D96BDFB
BBC8F234
3D3BDA63
BC07C8C1
3C7895BC
BCD99F7A
3D1C919C
3D8A0255
3CA96DC5
3C57C398
3CB3BDE3
BDA7FEFA
3CAB7490
BD293E47
BD2457F3
BD5DE8C3
BCFC1B8B
3D9697AB
BC183B46
BD7B8528
BD1CDE9C
BCB36D22
BD3FEEA0
3E07435B
BD20CF5A
BCBED6B3
3BF4F1F4
3D4898B9
BD0DBE48
BD009B55
3C3AE2DD
BCF5DEA4
BD2E2569
3A95F172
BC8E88FF
BCAB330F
3CF8DE12
BB61F2F8
BCA798D8
3BE158BA
BD10AF75
3C863969
BCA64A71
3B04110A
BC6A336E
3A37F199
BCFD6E97
3C2BB4DA
3CF18C86
BCB2F462
3D07DA3B
3D3E86B9
BAA72A7E
3B0E5A86
BC121FF3
3C95E6D5
3CC8D18C
3CC449C4
3C21F645
3BB328A8
3CD91428
BCEC0B2A
BB753E55
BC5019FA
BCC492BB
3A650BED
3C66393B
3D309F51
BB0767FD
BC2523B2
3C47CD2C
3D0B22C9
3C482130
3CB871E9
3B1ED441
BD0645EA
3CBE7C40
3B1A7FF1
BCADFF8B
3C6A80B2
BCEC7A1F
3CEAB47B
3CEE306E
BB167DB4
BC00C70C
3C76A884
3B821E1C
3C60C89C
3B84B07B
BCA06906
BD41115B
BA417292
3C0C3BC4
3D234FC0
BCEAB9AB
BCAA818F
3C87B419
BBBC0EA4
3C4F66A3
3B92D925
BB7FBFA1
3CEECB29
3B43E9BA
BC949896
3CDFA472
BC10E58A
BCEBC266
BD153D62
BD03A1A7
3C840F74
BCEA48AD
3C0ADC03
BC203DF9
BBC2F0A9
3B3AFF79
3D1AD8B3
3CB275AF
BC4E3B8E
3B0F092B
3CD3E4C1
3D443444
3CB27E62
39085257
BC85FA3E
3D5031EE
3D4831A2
3CCC0BA5
3CEBB53C
BD42E025
BBA5024E
3BF5890A
BCA7957F
BD863DBF
BBCF42E5
BC761EFB
BCC3ED56
3CA8F0C0
3B8D747A
3C936192
3C99B6F5
3C95EB8F
BC2F40D9
3C759AD2
BC41A8AB
3BDF2CF5
BC71D6A5
BC8EEB55
3C47589F
3D383011
3A84C1AA
BB4E46E4
3D0FFA5D
BC7C1F00
BC85E6EE
BC6D32F4
3BAAFB82
3D2FE32F
3C6552A0
BC16CDF2
BC49B532
3D15FFBA
BCEFB897
3C80FE5D
BD2D50FF
BD6D0AEF
3C8D98F6
BB885140
BCC02589
BBDCB31A
BCB4CFBE
3CF35FC0
3A85B2EC
3CA6EAD2
3C1EE21E
BBE981B0
BD36A84A
BBFD196A
3D1A4156
BC688B9A
BBE7BEB0
BD3F6804
BC82E91C
BB7B6D33
BCC5217D
BC6D874B
3C7978E3
3D01D83B
BC022223
3BE609B1
BD414D76
BD223C84
3CF477D2
3A738C71
BC3655BE
BC1F4B75
BCAC079F
3C5E6CCE
3D0524E7
3D1AE261
3C383503
3CA8EDCB
3C999F8F
BBAFF77D
3CE75581
3B27A009
3D43F234
BC7D884A
BB02A312
BC6D0B46
BCACEC3C
BD336226
3CC000D0
3D0D5BFF
BCB71F3B
BCAEBC94
3D4170BA
3D3590EA
BC80F28D
BCB8C0AB
3D4D35CF
3CA753CC
3C8B017C
3CADC58C
BD11CDB8
3D2BD28C
3D2128C6
3D6C6DD0
BCE50E40
BD14799A
3C28E931
3D0527CD
3C0E27FF
BD2C615F
BD1C710A
3CA89E18
3C00753E
3CCEB3E6
BC076C7D
3CAAFBB2
BC412380
BCE1CCCE
BD1E5B31
3C9D1E08
BB504438
3CE6694E
BC2E328A
BC536B35
3A01EDFE
BC002AE0
3D29F25F
3D28834E
3DAF29A7
3D89EC8B
BCAF6EB1
BD9F32BA
BCAA696F
3D298E25
3DCA4604
BD1291CA
BC871168
3C4D7CEE
BC2B2A2F
3CEA9D3A
BBB9E56A
BDCD2043
3CE982E1
3D3E7618
3D526573
BCE8DAE9
BC33C943
3D2A0F9A
BB2C208B
3CFBD37A
BCE7D61A
BD157F3F
BD33489F
BD0AB1FF
BC9571CC
3D017058
BD024978
BDC82286
BC6B3321
3CC7D422
BD022761
3D412CE7
BCB1461B
BD2E8F7E
BD26003A
3D35DDF8
BD941EBC
3B8C4A32
BCAE0594
3A878B67
BDD2EA36
3C8B5623
BA21DF95
3B84EBBA
BB5C5FAC
BC758A05
BC7151C4
3D421565
BC8F826C
BD08D676
3C8AA45C
BD0B0435
3CBE6247
3D301747
3D8ECCEB
BD19E52D
BCCCEF09
3D81E039
BC9EB42F
BDAAFC8C
BD531B54
BD14DD4D
3C323971
3D220EFE
3CB2E4B0
BCFECEB1
BA909B3A
39EAA409
3CC72011
BC88F3EF
3980CE41
3CA3A83C
3CDD273C
3E1E5425
