3DE69F5A
3D8EBFD8
BBACDB92
3D80FE07
3B05BB2C
3D8343AF
3D95BD9C
3D3CFAA5
BCFC56EB
3CAC7625
3BDDE72F
BC52E80F
BD07938A
BB695896
3CCFB127
BD71A79B
BDB50B9C
BD0B3AB7
BDC330DD
BD4E4E80
3CDEEDE8
BDBA9754
BC925182
BB4CAA66
3D5A7AFE
BD035D2E
3CA899C7
BD4C799F
3D553200
BCCA35B1
3D9C5571
3DE4A40D
3DA0AA79
BDC59D05
B91714AF
BCB8BCC6
3D6AE13B
BD12D472
BD84DD5B
BDAFFA51
3C9F568B
BD60038A
3D160D59
BB98B4CD
BDA8F0AE
3D04C1A9
3ACDEA56
3CB05CC2
3CFA82A7
3C883113
3DA9D591
3D649968
BDAD05EE
BDED3B12
3D33C41B
BD9D24AB
3C265231
3DFC7381
BC98A09D
3D09499E
3B4E96FF
BD1AAC74
3D00328E
3D143FAB
BCEC87A2
3A1690B8
BE2E4D0A
BBB8B34A
BD878722
BD78C635
BDA3CB59
3BC8E3AC
BCA6B284
BC2DE5CA
BCE71684
BD308B1F
BD22583E
BC784C02
3CE8A2EE
3C52993B
BC330C46
BDA13C5B
BD4CADEE
BD18AA03
3C850D25
3E021A25
3DA0A901
3CA5A400
BCBF0B2D
BDCE9EE7
3B2DA12F
3DBA16F0
BDDA19DE
BD0BE6B7
3BC5DA77
3DB0E441
B989B441
3C499F44
3AC1BE71
3D23607B
