BD620924
BBBE6B2E
3D1E872B
3D9D0718
3BC63124
3C8F1A94
3C3CEABF
3D07638B
3CDE317D
BCAD7175
BC4A29DD
3DB73526
3DD31EE5
3E2294FA
3C5156C8
3D3DA58D
BAD6777D
3D5FEDC8
3C28A541
3D511BD2
3D9E0C34
3C9B8A9A
BBEA54FE
BDE62EE9
3D961E53
BDB0F0C7
3D1846AC
BCCBF6D3
BD9C6FB6
BD23EAB5
BDAFE86A
BCFC44F2
BCDC5403
3D89B80D
BD8B14B3
BCDC6CCB
BD346EB1
3D7AD1D0
3CC1E8C3
BD11E5FE
BE366FF8
3DAB9CF1
3A9FF521
BABA5DCD
BD39BD34
3D12B7A0
BD365D40
BD4FF894
3CB3E8D7
BD72E67A
3D441840
3CDC560E
3DE16E6D
3D21DD28
BD4D3EE3
BDB2F7B8
3C9F0050
BD4FD179
3D26706C
BD829ACA
BDB4827F
BD9D35C1
BDCC39AE
BCC66E06
3C8527E6
BD252061
3DFD7045
3D702AD3
3D59B356
3C4C13DE
3BCA5B10
3D18E026
BDE214E1
3D83A47A
3D19CFE2
3DC0A4B6
3D6A06AC
BDD697AA
BACB4309
BCD2AE9E
3A67C605
3CEC4F35
3CC1F51A
3D6D8C79
BD5D0FEA
3CE4B55D
BD22BD90
3BF3BF49
3CE26FB9
BB834870
BCB9ED92
BD82C396
3D235BCA
BDDE999F
3D2F2C9B
BD35BB63
3DB2ACA0
BD457FE9
BC714464
39AE204E
