3CD075B9
BC5F3820
BD3C9B04
BCB90F65
3BC6FACC
BD1C1896
BBDC3802
BCEC7817
BC005EC2
BD00340A
3C37ACBC
BCC4FD13
3CD2C4F4
BD99C41E
BBE6CFBE
3C6BDE38
3CE7E73D
3D2EB4A4
3B595EEE
3C32D4D7
BCA6DA78
3C6C6EA6
BB816249
3CD38CDF
3C6D6036
BD902B5B
BCDEECFC
BABB24BB
3D1F21A3
3C825254
3B9237DC
3D014CD7
BAA2A805
3D206BFC
BCA3754A
3CA01D7E
3C05383B
3BE4CD61
3C480665
BC1D8759
3C98C4AD
3D3A4D3D
BD1D36E9
3CC594F2
3D0E68AA
BC6EE380
3D19FE64
3CDA2D15
BCC0A8CF
3CB5C35C
3D219764
BCD392CE
3D52F236
3CDE36E2
3C8A2E27
3CA393C4
BD0C0A84
BD520BD3
BC319FD0
3B8F5321
3CA08EC2
BDAC1F70
3C3D5380
BCE727AD
3C338C04
3BB822D2
3DAC780B
BCBAD8AF
BC966CD7
3CC1E1CA
BC13498E
3BA7F868
BCE92308
3BA4F65B
3D56463C
3D329F5F
BCBB8081
3D02D749
3CEC2A87
BC9BE920
BC3EC3BA
3D0E2E21
BC85B4E3
3B806DA4
BD4E450D
3D9FB3B0
3C10D045
BC1EB365
BC6BB5CD
3B54601C
BBFC7CF7
3C40BB17
3CEB6D70
3D1F6412
BC918687
3CC21890
3D196AD3
3CA36206
3C8E9C05
BDEA093A
