BD0D01E3
3D91AE45
3DCF17CD
B9D42359
BC81C688
3D9938CE
3CAEBCB9
3C4FA456
3A8F874A
3D14447F
BD81F76A
BA99E00F
BD49B371
3D9276E0
3D9D80DF
BC5734DD
3C8ED2B3
3CA9DE5B
3BB03D7F
BCD17C7C
3CE94A67
BCE4774F
BD43DCD1
3CFC526E
3CDA9228
BD23D5A0
3DC4CE2B
3D9BE659
3CB83522
BDE0D1A1
BD8EB62C
3D35D925
3B0BF3FD
BBE0617C
3CDA771D
BDA87FA6
BC0871EF
3E099C00
BB86E583
3D340896
3D15FF63
BD00D5BE
3D414E44
BDFBD7A5
3CF13BF0
3D2EC8CC
BD160AEA
BD355ACE
3D83D3D9
BCEF58C3
3C22CEC7
3CE75C52
BD830EF3
3C97AD4F
BC405813
BDADF637
3E0F5D66
BC96E876
3D9443EF
BC0D96AB
3C8685A7
BC80FFEB
3DC46B6C
3D35C93C
3A74A06B
BD6112ED
3D81FDC0
3DA466DE
BAA6E7C0
BB8F52A6
BC2EB15F
3CF88953
BC3D507C
3B93130F
BD304C51
BC3E7ECD
3C085B8A
BD448900
BD5A84C9
BC5D3394
BD491EB5
BC2E1ECF
3DBFF92C
BD1DD336
BC84DA36
3C630735
BD83AF35
3DC53229
B92CD51D
BD79AC28
BD133CE2
3D1AA63F
3C6D71EC
BB4BFD97
3D09F167
BD72EDB8
BCDF3BA0
BD973935
BDB3E346
BE0A8178
