3D144C3B
3CE7D403
3DA81243
BD849D9F
BC19086C
3CCFA4A1
3D760586
3CE735AA
BC3FB7E3
3D14AF6E
BD8F8AE2
3D1AC09B
BD1E6510
BBDD7CFF
3CBC722C
BB34F168
3C73A32B
BC54CCFE
BD023021
3CF71317
BD19773C
BC0F905F
BCA69E0C
BCBED88A
BDE4457C
BD7CCCFC
3C91048B
3D568376
3B1A971F
BD1EFC1E
BC8A849E
BC724BCC
3D0CEDF9
BCAD3695
3D40D92D
BC746AA6
BC2567D2
3D70816F
3B8F3D1E
BCC0C1DB
3BCCBF0B
BD450BC9
B90AB011
BD2D8E50
BC1DBEAD
3C9730B3
BC868B8A
BD19E004
3D079A9A
BBE12706
BB38551A
3C18122B
BDC20ABA
3D986379
3D0B7224
3C4F8DD3
3D2C5C88
3D096F74
3B8A1A2C
3D7CCD2A
BBE4FF2D
3C3BD605
3D820DA3
3D426194
3D51C2B4
BD5BD171
3D998053
3D47E178
BB7438C5
B9C3BFF2
3D58E942
3B9EB710
3C7FE6B7
BCBA6232
BD4BA239
3C911701
3D0DC0CC
3B75C69B
3C975B2B
3C171407
BBEF9EA9
BB3239E7
3BC7659E
BCEF0441
3C90961A
3D62644F
3C046666
3D199D7A
3D14AFD9
BBBEA287
BD1351CF
3D8C375D
BC9F2F06
3B04943C
3D36E640
3D16917D
BBADC0F3
BD1C0FA2
BCE591CE
BDB55CAA
