BD7A58A9
3B0CD6FA
3DC8C4C8
BD43C590
3D38DB38
3CEA1960
BB0451AC
3B0CB7D2
3CDD5134
3CA83122
BD5B5D06
BD3DCDA4
BDAA18A0
BD679CDF
3B900F12
3DA8AC91
3BF8A710
3D67FA6C
3CC03F09
398BDF3A
BD86A58F
3C5A2D4B
3C91DBF3
3DBBCB79
3D8CD0B7
3DA09A4E
3D0B6863
BC7A33F8
3D367E21
3D18BEA6
3DD01FBA
BD05BC7E
BC89A93E
BD12FB4F
3D20A629
3B32D077
3C04AFC2
BC8DDD26
3D081A4A
3DDD9490
3D8F999A
BD97DFF5
BCAE8302
BD382F98
3DD18E11
3D31FAF8
BCCFDF42
BD8D5362
BC664CF7
BD83EB4B
BDC64FEC
3CBB8308
BDD6496B
BD82E105
3D811BA4
3C7FCA9C
3DA9D537
BB14664F
3C2FD941
BBC7CC5F
BD29307C
3D88F074
3D51823F
3CBCA6AC
BC45B0B0
BC6B64C2
3C2B4C78
3D81251A
3D2AAEB1
BB30124A
BAE890BA
BD03316B
3B26565B
3C9C825F
BD2701F4
3A30755A
3D14A619
3BF17EFA
3D189D3D
3D820490
3CA8BE90
BD5872A1
3C1224B4
3D323A34
BD8C3B3B
BDEA100B
BDDC18A7
3D2F0078
BBBBEB66
3B178E5C
3BC9D897
3CB8EC0E
BCBF4DBD
3D7F4651
3CF1CF43
BD9531E3
3C2BBED6
BCD38486
3B8A9284
3CE9AE78
