BC8067E5
BD6C266A
BD8AAE30
3C73A78C
BCDAAC1B
BD8A6277
3A901A39
BD0B8C16
BBBBD4CA
BD22E300
3D83F7F9
BDA17063
3DB17BF4
3D3D0F82
3BC14BBD
3D8BAD09
3D66A0C3
BBD41909
3C5BDFD1
BCA71306
3D06127E
3DDC167B
3C8F200F
3C2085BF
3DA3BDF2
BDD04D69
3C1CB8BA
BD14DB89
3DC27A8F
3C06B01B
3A9FF038
3D51A807
3CDED926
3DE1FC57
BD96D616
BCC2166B
BCDC6B5A
BC3BC2C5
3D5EEC1F
BDC2227A
BC08A8D9
3DE9C6F3
BD91AB1F
3D59D3A7
3D85C017
3CDE7BEE
3DC402F5
3C30C91D
BD836CCD
3D0D54F7
3D10C07A
BD4734A9
3D9A764E
3C3FC407
3D3F176F
3CB5CEA9
BC3ACD4F
BDE0B632
3C754198
BDA82DCD
3D4AD61E
BE0A9F95
BD3C4591
BDB82AA4
BCD95C61
3C8895CE
3E59E1ED
BCD72828
BD9D2F11
3D940279
3D218DA4
3B24FD59
BDC3C932
3D91E650
3E07A0B2
3DDD3114
3CF39130
3D455845
BDB644F7
BD1B4EA5
3B0FF94E
3CFE161C
3BBC24F0
BDAD4C12
BBC1EF9E
3E0823A3
BCD74256
BCE7D75A
3CE7759F
3D13FC4D
3D0B4C0E
BD5FE64F
BD226AB7
3D0D39E3
3C276214
BC12261E
3DDD6F74
3D7F4F1E
3D922F04
BD6FDAE8
