BD5CCEC7
BD046A8F
BD0EA853
BD270793
3BBE227E
BD87F089
BD88F28C
BDA1234E
3B67C58B
BD10E99B
BC8D28F2
BC5E1D85
B9DC5140
BE0535BE
3C953B01
3ABE6D78
3DC27076
3C19A3D6
3DC28BCE
3CBEA267
BD6D2150
3CA421FD
BCD4EC50
3D8C8D1A
3BFDDDFC
BC8A4386
BCD07716
3CCA3436
3D6D182E
3D2FF386
3A455CCA
BD0BDFDF
BD0AB675
3D10C0A0
BBE3571B
3D16664A
BBF89A0A
3CA76FB1
3D0C3290
3D011C4A
3E0EEA6F
3CF4E232
BD1ABEAD
BC8A3046
3C1E7D83
BD071BBB
3D2CDD76
3CFC076A
BCBAE3DF
3DBC786A
BD1274A0
BDC936D9
3D9D17BA
3D438657
3A9DF572
3DB39E01
3B1B10C8
BD6373C7
BC94384A
3CB63547
3BB7113C
BBA9000D
3C1F4A01
BD4D418E
3D34A65E
BCAD4F02
3DD7D421
BC6A3E1A
BAFE99B6
3D31FD55
BB38D3E0
3D03ED7E
BB758247
39DFF60F
3D74724A
3DA102A3
BD1E82C1
3D4F9A34
3D994242
BD43804D
BD7D7B84
3DA00751
BD26255A
3D75DB3E
BD24AC85
BAC5695E
3C579986
3C9A764D
BC8045FA
3D04A23B
BD0AD4D2
BD1C1489
3D969C17
3E03F747
BCC2C372
BC18E8C2
BD292276
3D25CD3D
BBA7ADD4
BDEB8C44
