BD2F85D4
BD85700D
BC46D92D
BD37C0A1
3CE982B3
BD9C7C19
BD4B273F
BCAEE7B3
3D05A9E1
BD02BEB8
3CAA77D0
3AD9F41A
BCE41A5C
BDC24587
BCE8A058
3C56B16B
3D4ED905
3D91D275
3D142163
3C90AE25
BD4D995D
3CE89068
3BC1EC34
3DB0F180
3CDEFBB1
3E0A8087
BCC68ECA
BD644946
3D601846
3DA57610
3DE73E82
BE065969
BD649A41
3D751A7A
3A64825C
3D676A99
3B50A096
BE0C698A
3D288C6A
3DD2D4D1
3E0B9D0D
BD647AD0
BD6AAC99
3C65CD41
3D73D5D7
BCE3BB00
BC6FE179
3C7F7004
BD65FC9B
3CB70B03
BD2E9433
BC3C92EE
BB717610
BE31FD8A
BC0BD404
3D7613B6
BCAB583B
BB1C4018
BD5C5A99
3CC35EB6
BD35F41E
3E0911F7
BD5D6C8D
BD5FC0BC
BC40187A
3CB4748A
BD40B45C
BCB3B2C6
3D201A92
3CB834E1
BCE207BB
BCA5CEC4
BC71F0C3
BBBAF43D
3C45A91F
3BA40529
BCD3260A
3CD41F49
3D70ED72
BA4B0C63
3CCDCCCD
3CB4B5E3
BD966B5D
3DCF2CC7
BCE13A89
BDEC8594
BD9DC92A
3B96A32B
BCE02FEE
3DBE2C3A
BA906BCA
BCD35FC8
3D3943C0
3D41A6BC
BD126AC1
BD5409DF
3CA35BD5
3CF25A6F
3D4642B1
3DED1190
