BCB8FB24
3D59CD26
3D987224
3C7778CE
3C85F572
3D86AB0C
3CDE9340
3D1CC704
3C06AC2C
3C6FE490
BD0235E0
BBAA94ED
BBEE64BB
3D79E03A
3D269981
BB7A4A6F
BCCFC4FE
3CA036F1
3A67A8BB
BC463FB3
BB57A680
BC9FC444
BCED64FF
BB3CD559
BD30084C
3CCF1246
3D1A9DDE
3D13624C
BBA445B1
BD4D9D16
BD5992B5
3C207E44
3CA54D5C
3C0EE64A
BA5041DA
BCDF04F0
3C637587
3D731E64
BC1B22DE
BD19FA1A
3C82AE97
BC530BB7
3D00829D
BD44B714
BC54EE2B
3D334091
BCA8CA34
BD0F0B71
3D6565C1
BB628A1A
3CD63339
BCBD3DC0
BD791849
3D815A8B
BC74F1AC
BD448E5F
3D7CEB74
BD49B0F3
3D30F41D
BC2E475E
BCFAB25C
BD6D8FF2
3D2C1AE2
3D3D36F7
3C3EB925
BD2C23FD
3D933B51
3D788751
BCADB285
BC23BD3F
BCFC2185
BC720E6B
BCE511A2
BC8F15F4
BCF31F5A
3D01EB78
3C38C861
BD15C06E
BD5F1DC0
3C5C3CB8
BB691AF2
3B28A9DD
3D1C488C
BD386B0D
3C48F23E
3D533DA5
BD087283
3D4ADD6B
BC1995D8
BD7AA561
BC080AE8
3BF84930
BB303FF5
BC9862C2
3CAA0852
3CEAC46F
BB9CD3F8
BD2727AE
BD3554A7
BDA63537
