3CFCA6F8
3D900B58
BB6DB37B
3CEB9C2F
BC5FF9D5
3D1F8138
3D32C16D
BBAB52FF
BD200684
3C1A9031
BB9F2838
BD2F9804
3BAD7722
3D604F96
3D4CD3DA
BC0839A9
3B1BB898
BD8F33D0
BD814795
BCC50462
3C14CE0B
BC3DA702
BD090777
B9DCFE1E
BD291430
BC7165CA
3D2C1D14
3D22DEB6
3CD08443
BD4C5FAD
BD754B14
3DDBD5E4
3D379330
BCEF4E47
3A6D1B85
BD97C492
3C206021
3DF0AF4A
BC8AD501
BDD4EBF8
BCB85D62
BBB0DBA6
3CF60B3C
BC9E33D0
BAD93C67
3D0C6CC7
3D560BA8
BBED0420
3D8747DE
3C629034
3C0522E6
3C96732A
3C46D7B1
3DFB41DE
3C1E17AF
BD5118F9
3D387B2B
BC1D26A7
3D53E5BB
3C21C467
3D4C17E8
BDA36121
3D9449E5
3CA47A03
BCA18A4D
BC216099
3C657C6A
BB07DECC
BD597DD8
BC3DFA33
3C8ADDA0
3C98831D
3C3E0F72
3C58EF3A
3CF7A5CD
BBA6CBB3
3CEB12F9
3C4FBFC9
BCDFB8BD
BCE96385
BD80024E
BC1FB711
3D9DCC22
BDAD695F
3D9350C6
3D88F2D1
3D39388D
3D107904
3C070F6A
BDAF115F
3B04E353
3CCCB784
BD23A8FA
B9C24BA7
3CC8010E
3D8498C8
3C24F292
BC86052F
BD455302
BDA1BF85
