BD3EDDD6
BB09005F
3C206B92
3D89E7F8
BC261673
BCC70203
3BB811A2
BD2EDBC6
3D42F398
3C39DE98
BD0ADA0B
3C166D47
3CD40531
BD81F594
3DFCD278
BC95A302
3A8A4C18
3C10230F
BD519837
BD06F9B5
3D0B44E2
3CD86515
BDC006A0
3D23CF2E
3C4C0989
3DE6B24E
3DA60C77
BC0AEF82
3BFF2CFF
BDBF167A
BD7C0CEB
3D20B67A
3D26E635
BB582A16
BBAB1DF7
BCFBDEB4
3D9F39BC
3DDDA641
BD2DBA2F
BC3BBD25
BD04C850
3BD17D6A
3CAD0126
BDAD7595
BBB08552
3D0F4057
3BEB2208
3D0160FB
BD0519AB
3D03746F
BD009262
BAC5CF89
BD54DF56
BCE2ED6B
3D37620E
BC4841FC
3DB81F93
BCCBD87F
3D93E143
BD9E8FE7
3C5A4F70
3BD82D81
BBC4A3C8
BDA957DC
BC596140
BCDD422A
3C350EDA
3BB35DEE
3CE41E2D
BC9378B9
BDF69955
3D68942E
3C2A1839
3D2DC9E0
3D6DD5D6
BBBC6CC7
BD65D9E8
BD13E610
BC64FCCF
BD619F9C
BDB0E791
BCAA74A8
3D3B2702
3D3A4C5C
3C57A930
3BDFE318
3CC4F79F
3DE09F73
BCD5CD7A
BD8D2BC6
BC91CBAC
BBE01322
BB8D660C
3D0091D0
3D48DCC2
BCE9E998
BD990AC8
3D9BEF91
BC828C28
3D407D76
