BDEDCD5A
3CC5C0EB
3CF65FFC
BCD8FBB2
3C97E2DC
BC7F1079
BD68E6B0
BD2EEBB4
3D87EE24
BD065E0D
BD541C88
3B884654
BD5327FD
BE6DB34A
3D37DBC9
3C5BAA90
3D3DD43A
3DFFCF2D
3D8A958E
3D172FDB
BD0DA578
BCA9D228
BD7C0E40
3D1A296D
3CB58C5E
3E199E17
3C7DE388
3D0D7118
BC828ED2
BD02359F
3CDFCFD6
BDBFF2C9
BD51C01A
BD164B00
3D22091F
3CDD57AB
3D1F8BD6
3D8578E5
BC9E0C5E
3DBEEF2A
3E26CAD5
BD15D3F8
3D801AF0
BD958A8E
3CC7FA80
BC46FFFC
BD098674
3CDD0DD9
3D33E506
3D249FB8
BDC58D79
BCD3F330
BC31D823
BC2D97C3
BD20521E
3D1787A2
3D155CE4
3DB87838
BCC6D649
3C8FC2E2
BDAE41A2
3DCF29A0
3D0F88D1
3B507443
3D6EEAB1
BC9F67D5
BD20863E
3BBD2DF9
3D9856B4
BD175BDB
BD647DDF
3CB8775D
3CF7D168
BC2A8198
BD2C97F4
BD92FD01
BD4C2F17
BC1B0256
3DE0E01F
BD12716A
BD338698
3CFE59C0
BD3A5FF4
3D9EF1E4
BDCFDCE6
BE0B25E8
BB859F5E
3D99DC4F
BD40E46F
3CA4B1F8
BD84A14B
BD1C2E15
3D96182D
3DA7B884
BCE49B06
BDBDC4DA
BDAC5DAD
BC4A7D06
BD3E0483
BCEDFFF9
