BDBEE6C5
3D91293D
BD39C518
3DA569C0
3D8617CF
3D6F3155
BD223B4B
3CE967D9
3DEE21A6
BD97D08F
3D2AB393
3C8733E8
3D3C6D75
3D29AF2B
BC339964
3D49C7C3
BB8BCD8D
3E183D7D
3D62C16B
3D1477DA
3CE6890F
BDAE31C8
3C891C00
BDADC59F
3D75F19B
3E018086
BC1B6E85
BC1CD410
BC96F282
BDA7EFC9
3CFD6024
BCFEFD77
BCE340D3
BDB27765
BD682F34
3B8ED34D
3DAB864B
3DA6D6FA
BC1A4DCC
3D3C9AA7
3B4E8FF5
3D7D2AB1
3D51B2AB
3C151BB1
3BDD65EA
BD19E549
BCC614BA
3D53F8CE
3DD4DBB1
3D20EEF4
BE1EC8DD
BD4DCD46
3DBE34EF
3D8AD22D
BD56D5FF
BE0166FE
3B17E267
3CE6054A
BB3C57D8
BDAB2FA0
BDF32BAF
3D5E168C
BC981E0B
3D636FFC
BD224374
3D0D3D1E
BB453B41
BCB955A6
3DF29C4F
BD21AF04
BE1D224C
BCE114EA
BDC5F88D
3D2FF5B6
BD22C022
BD1FB93F
BD9106FC
BD973E3F
3D64F4D5
3D1EB663
BB34AD2A
3D982330
BBC81F17
3DD3603F
BE0AF487
BC552B93
BB76570C
BC51FB44
BDB73FB1
BD3F0923
3C1E2F7D
BD492975
BDA2A67B
BC6E705F
BD676C5A
BE059D47
3DAF3779
BD79DFEC
BDE6ECFD
3D71F6ED
