3DD89AF3
3CDF22F6
BC8C3B92
3CD9427B
BC7BD08B
3CBFC099
BD7391B1
3CAE6869
3BEF1944
BCEC145D
3D6579B8
BD3D3818
BC8DB1C6
3DC1F175
3C405D77
BBD05BA5
B9E4246F
BDC84787
BD7E9AA2
BC46A930
B9DB3CE3
BD26F03D
BC797FF2
3D7BB96B
BD80180B
3E19F22D
BB8696E9
BCC5CDDB
3D01AECA
3CD190BA
3CB47412
3C365032
3B6B302E
BCF7021C
3D369ABA
BC4C4051
3D0A7F0F
BD47D957
BAFC173A
3D1AEF0A
3D0E35BE
BD84DCEC
3CC8F1E6
BC11A2E5
3C95EBC5
3B8DE1F6
3D64B573
3CBC6D5C
3D02B59E
3DBB8D7C
BCB5EEA9
BB2EDC58
3A68ACF0
BBD86BE0
3BE99F2E
BC95AA84
BBA2E91E
BD83FF2D
BCB1C157
3D9ED892
3AFBA532
3DFA7916
3C7AB6F4
BC0DA0B4
BCE9F6FF
3CD32684
BE2ECFAF
BD2C7284
BD17EA04
BCF160D2
3C8B6E29
BC438E3A
3C2549D8
3B58FABF
3B3992CC
BC3B11C6
BC87F3EB
3C8B1CDC
BC9A91DF
BD2A5C8A
BD4BEAE7
3CA27E65
BAFCEAE5
BC6A11FA
3E1206A1
BC90BCD7
3D48727B
3C182C25
BD5A9D47
BC6A0B31
3C3DB255
3BE28C3E
BC1B4B3F
BC3D3116
BD178A3B
3CAEF775
3CB49179
BBBF4C07
BCDC1F7D
BD834C4D
